#version: 0.2
a n
Ġ d
e r
e n
a r
Ġ m
l a
an g
i n
Ġ s
Ġ p
a t
Ġ k
Ġ b
Ġ t
d a
s i
Ġd i
u n
k an
e m
a l
a h
a m
y a
a s
a da
d o
y ang
Ġ yang
Ġs e
en g
Ġd an
o n
e s
t u
i l
o r
ar i
g a
la h
a k
Ġ S
i s
i k
u s
u m
do c
< /
Ġk e
o l
t a
Ġb er
Ġ in
d i
Ġm en
Ġ A
Ġt er
in g
u r
e b
e l
Ġd ari
a la
u t
Ġ P
a kan
i t
Ġin i
a p
ar a
u p
Ġp er
u k
e k
Ġ K
Ġ j
t i
Ġ ada
i a
b a
Ġ M
n ya
Ġ "
Ġm em
g i
ala m
Ġ B
r o
Ġ h
e si
Ġada lah
Ġ (
i m
Ġp ada
a si
Ġ I
eng an
u l
e t
Ġ D
i r
am a
Ġ T
tu k
un g
Ġm er
Ġ 1
Ġ l
Ġm eng
Ġ f
Ġd engan
o m
j a
Ġd alam
Ġ un
at a
an ya
r i
Ġ g
b u
t er
e h
Ġ C
Ġun tuk
Ġ la
Ġ 2
Ġb a
Ġ r
p esi
pesi es
e la
Ġ n
Ġj u
Ġp en
e p
ol eh
Ġ N
i da
ga i
Ġ a
Ġju ga
Ġ oleh
Ġ J
Ġ L
i d
r a
w a
Ġ R
o p
up akan
Ġmer upakan
gi an
ah un
ĠI n
on g
b ang
i h
o k
Ġ2 0
Ġ c
ba gai
Ġt ahun
e g
Ġ or
p er
Ġ H
an d
a b
ata u
e lah
as a
Ġ atau
Ġba gian
eb ut
Ġse bagai
an t
at u
Ġ G
al i
b er
a i
Ġs pesies
Ġ1 9
at an
o s
a y
am p
i tu
t r
u h
e c
ja di
Ġp em
s ebut
u la
i p
em u
c h
Ġ F
Ġb ah
u b
o t
ap at
p at
Ġd apat
an a
u si
Ġmen y
Ġ w
a d
il m
Ġper t
en t
ik a
u d
" .
ida k
o ta
Ġp eng
am b
ĠA n
Ġt idak
Ġ E
ang an
Ġmen jadi
an j
m a
ik i
Ġb i
Ġs a
il i
Ġg en
Ġ U
at i
g un
e d
t h
Ġdi t
l u
i si
Ġter sebut
ay u
Ġk ar
ek a
en a
Ġk ayu
ĠA r
u a
Ġs er
Ġ20 1
Ġf am
Ġ W
0 0
Ġmem il
di ri
ro p
e ta
Ġor do
Ġk er
i c
Ġt elah
ĠS pesies
ah an
Ġgen us
o d
la s
ang g
Ġmemil iki
Ġ itu
u kan
s a
Ġp ro
Ġ O
bu ah
Ġse buah
Ġla in
Ġfam ili
a g
h an
ol ong
es ar
in t
is t
Ġdi k
al ia
Ġ Y
Ġter g
eb ih
um bang
ang k
Ġse k
c ara
u an
as anya
ĠP er
e w
Ġpert ama
l i
gun akan
Ġs en
Ġterg olong
o g
ap a
e a
i la
r an
Ġ ak
em b
Ġbi asanya
Ġs atu
a w
er i
do n
Ġl ebih
ida e
Ġmer eka
Ġke las
a an
in ya
or ang
ar an
) ,
Ġk umbang
) .
a ya
Ġbah wa
per ti
t an
em pat
Ġm ela
o da
a c
id up
Ġf il
Ġ v
â Ģ
Ġse perti
eb er
do m
on al
on s
i an
om p
Ġse b
ter a
o b
Ġs u
Ġ as
ing ga
Ġke p
g r
anya k
o si
ĠIn s
eber apa
ĠAn im
en d
Ġk ali
Ġfil um
ĠAnim alia
Ġ akan
ing dom
Ġ ia
Ġ ant
ing k
Ġk ingdom
ung an
am an
o h
Ġor ang
Ġdi s
eta p
ĠAr th
ec ta
rop oda
Ġ20 0
anj ang
ĠArth ropoda
ĠIns ecta
Ġkar ena
Ġm el
Ġdi p
b it
o v
l e
Ġse la
di a
h e
at as
esi a
an i
Ġ V
Ġse cara
h ir
g al
Ġ an
y ah
i b
da h
asi l
di an
ur an
u j
" ,
eg ara
r e
ar kan
Ġh idup
Ġ 3
Ġm as
don esia
en tuk
s t
on t
d uk
ĠA m
Ġmem b
Ġmen c
ala t
ta si
i kan
Ġb ar
Ġb esar
en si
v a
em p
la k
Ġse orang
Ġse t
eb ab
at ang
Ġb anyak
Ġk ota
ĠIn donesia
Ġ al
n i
a ja
Ġ ilm
en al
ĠP ada
or m
Ġt etap
e da
ar ah
Ġdi ter
Ġ ut
i ah
a j
im p
g u
da pat
m an
emu dian
Ġber k
ebab kan
Ġb eberapa
Ġse j
al an
bu at
o f
e v
it as
e j
la t
tu r
g an
in a
as al
Ġdi gunakan
Ġs em
ol e
um um
Ġp anjang
ĠA l
tu s
y c
t ar
Ġsen diri
m as
w an
ar ga
bit kan
n a
or i
ek s
Ġmeny ebabkan
Ġt an
el um
Ġke c
o la
Ġsa at
Ġse l
e f
Ġant ara
er ik
ti f
op tera
o c
ing an
usi a
Ġk emudian
ĠS ela
ĠC h
m e
Ġmeng h
ar va
Ġditer bitkan
Ġ ya
an nya
un ia
um bu
ole optera
Ġber b
k in
i g
Ġpen d
Ġd ua
t or
Ġilm iah
2 0
Ġber asal
ĠN ama
er ika
er ah
Ġp r
Ġd a
ol o
Ġber s
em bang
Ġdi sebut
ar t
Ġn egara
Ġset elah
un ya
er a
k i
Ġk em
u g
asi onal
Ġbah asa
Ġs ang
Ġk es
Ġp ara
s e
ik asi
Ġ umum
ula i
u da
it ar
Ġf ilm
h a
Ġter l
ĠAm erika
et ak
Ġsa lah
Ġ atas
im a
ang ga
um lah
Ġtetap i
Ġl u
w al
Ġm usi
Ġdi b
Ġter b
un c
ingk at
od e
a in
an da
ing gi
ĠC oleoptera
ul an
L arva
Â ł
y ar
i ga
un an
Ġdi m
s es
ila yah
ĠI a
Ġb atang
us ah
er si
Ġh ingga
am un
u c
Ġke t
Ġt umbu
Ġ 4
P ada
is a
ada p
Ġker us
as an
Ġke d
em ber
ar d
k u
Ġt empat
eb ang
Ġn ama
uk u
Ġkerus akan
h i
ĠC er
Ġ1 8
t as
Ġse d
Ġt and
Ġdit emu
âĢ ĵ
ut an
Ġ19 9
olo gi
Ġs amp
ar ta
Ġkep ada
er int
en is
op h
en tu
in d
Ġsang at
Ġh anya
ĠD i
j u
e i
ea e
Ġmeng gunakan
eb or
Ġtand uk
Ġk om
Ġm asa
ari s
ar ang
Ġlain nya
Ġse p
l an
Ġdit ebang
amb yc
ĠCer ambyc
ĠCerambyc idae
Ġmeng ebor
Ġt im
1 9
Ġse h
ik ut
Ġ 5
Ġpen y
Ġdi per
Ġdi r
ter n
k a
Ġber t
Ġsek itar
ĠB ar
Ġp as
it ik
un j
s u
ĠM ar
Ġw ilayah
um p
Ġmem p
Ġm an
t o
Ġya itu
Ġs ama
Ġ ap
Ġter h
a di
lu i
di si
Ġser ta
ĠP ro
ur uh
ĠI s
Ġa ir
Ġ angg
i ta
a f
Ġp ol
mas uk
Ġtumbu han
Ġsela ma
Ġke l
la m
ist em
ang sa
Ġdik enal
Ġa g
Ġmem per
ent ang
Ġt angg
an y
Ġa wal
ent ara
w ah
em en
ep ang
Ġ of
b i
Ġp ut
ba d
ak a
Ġmela lui
ang kan
ud uk
Ġ( "
in an
Ġbar u
eng ah
is me
et er
in si
Ġ ar
e ja
Ġseb elum
asi h
P er
ung kin
ing gal
i f
Ġak hir
Ġk on
Ġ ga
Ġber p
al ing
en da
Ġtangg al
Ġla lat
Ġsu atu
ĠA g
en c
Ġm akan
a wa
in i
ir an
ĠJ epang
u i
Ġ Z
Ġk omp
Ġpem b
Ġsamp ai
emb ali
Ġdi a
erik at
Ġd unia
il an
ĠD ip
Ġterh adap
Ġb isa
eg eri
Ġterl etak
er n
ĠS erikat
ak tu
ur ut
Ġmem buat
Ġseh ingga
o w
p a
Ġangg ota
ran c
Ġan ak
uk a
at akan
r it
ap an
duk si
un d
Ġh ar
es t
Ġmem ber
up un
ĠK e
is ti
da s
um ah
Ġa d
o lah
Ġ 6
Ġ( )
c a
Ġk u
" )
il is
Ġked ua
Ġper n
Ġter masuk
ĠL alat
ĠDip tera
es a
ew an
Ġ i
Ġh al
Ġh ari
Ġdi lak
ak at
usah aan
Ġk ons
Ġut ama
ul is
Ã ©
Ġber h
er ja
gr is
ela s
Ġbers ama
am anya
Ġs istem
ĠT im
Ġk embali
si s
on om
is asi
g gris
at kan
Ġk h
el l
Ġket ika
Ġber bagai
si a
Ġt inggi
Ġm ana
n e
ĠT er
v insi
emu a
Ġba wah
Ġs p
00 0
es k
is tr
ang s
Ġter jadi
d e
Ġ19 8
t e
ĠS a
e ti
ak si
Ġse ba
in e
l is
A n
Ġm ulai
Ġkec il
Ġpem erint
h o
er asi
Ġ ro
b at
er s
Ġm asih
Ġ 7
ur ang
us t
l ik
k s
Ġw aktu
u ang
Ġb ulan
b um
ĠIn ggris
Ġter diri
Ġr es
Ġda erah
la ba
e kan
Ġt entang
Ġter k
ah kan
ĠT i
ur a
Ġber ada
ĠF ilm
Ġp aling
Ġ z
Ġba gi
Ġser ing
Ġa bad
g en
Ġ Ċ
an c
ra f
Ġdi l
an an
p or
Ġper m
ah asa
ĠP en
Ġm a
eng g
ek si
Ġdilak ukan
y l
k ukan
Ġt el
r es
Ġp es
d en
Ġke lu
yar akat
at en
ad ang
v ersi
Ġb entuk
o id
Ġt u
il l
ih at
ĠM en
ti v
bu h
er man
ek erja
ĠU t
et elah
a v
ĠD alam
Ġter t
ĠS eb
angga p
Ġpend uduk
Ġm il
ak hir
t ing
ar ti
omp ok
up a
Ġpro ses
y at
Ġj enis
Ġ en
il ih
Ġk ap
r on
ur u
k up
ĠS h
Ġt iga
Ġber j
ong k
ĠU ni
ar k
r y
Ġt ak
ĠA p
Ġsej ak
Ġse ti
ter i
ud ara
Ġmela kukan
Ġs emua
tasi un
Ġ 8
ek n
das arkan
ĠSela tan
u ari
Ġj umlah
an ta
ub ah
ranc is
ar na
Ġba ik
Ġp el
Ġr umah
un i
ab up
unj uk
abup aten
Ġdi h
Ġsu dah
e x
Ġ -
int ang
Ġdi tu
al es
Ġm at
an tu
Ġman usia
e o
Ġla gu
at or
m i
Ġhar us
uk um
Ġj ar
ul u
ĠP r
angs ung
en s
e di
Ġper usahaan
ak ai
el it
Ġter dapat
et ah
f orm
l t
ĠA s
angk a
Ġ at
ya k
Ġ1 0
er eja
T he
Ġditemu kan
Ġmusi k
Ġmen d
al l
Ġmen dapat
Ġmas yarakat
Ġ ek
lah ir
L alat
Ġp ela
angk at
ub ungan
it er
n ama
Ġ19 7
g t
ĠN amun
Ġter p
Ġper s
m p
Ġp ula
as ar
us us
us at
an ia
r ist
t on
Ġpern ah
ap ai
in ta
Ġas al
al ur
Ġdi ber
q u
um i
Ġ &
Ġsel uruh
Ġ 9
i wa
ĠBar at
in al
ĠP eng
ar uh
eri ta
u ah
Ġ el
Ġm od
ol usi
m en
rop a
un gai
Ġd in
ĠM er
om b
ĠI I
ep at
Ġk ata
as t
asil kan
Ġp op
di kan
Ġumum nya
ran s
eng k
ĠP rancis
el i
ip un
ĠK ota
ati f
ensi s
ro m
Ġd e
Ġmen j
Ġs t
ĠK ar
i ch
esk ipun
Ġper k
ĠS ep
ĠD ia
ĠAn g
ĠJ erman
ek at
ĠSela in
r is
e dia
Ġt he
er ti
Ġs ub
tr uk
l y
ĠE ropa
us kup
ung si
ok si
am i
ul i
ĠB el
a ba
Ġke h
ti kan
ara an
Ġ19 6
Ġlu ar
Ġr e
ap i
ĠTim ur
ĠB er
Ġmusi m
o u
aja an
Ġberb eda
in c
us tr
anj ut
ĠR om
. .
n is
u di
2 00
unya i
Ġ eks
Ġtu buh
ul ang
amb il
ub lik
on ia
ĠU n
Ġmemp unyai
Ġdi ri
Ġlu as
at us
A l
or d
ĠN egeri
Ġmen er
g er
uk aan
af tar
s an
Ġseti ap
amp il
Ġla ut
ongk ok
diri kan
Ġditemu i
er an
Ġt ra
Ġmakan an
ĠK or
um ber
Ġ1 5
t ik
em ba
D i
id ang
ĠS t
aw at
onom i
o y
alam i
at ur
Ġn amun
it an
Ġbar at
ra d
ĠUt ara
Ġ19 4
ir i
Ġkar ya
Ġpeng gun
Ġmember ikan
I n
Ġd em
e y
Ġmem ba
Ġ 0
Ġ X
Ġtan ah
og raf
z a
osi al
Ġor gan
Ġbah an
Ġb ela
C h
unc ul
imp in
1 0
Ġse su
ak s
ĠIn dia
di dikan
an s
ir a
ĠTi ongkok
Ġut ara
D aftar
ĠK abupaten
Ġg el
uskup an
or a
ĠS p
in asi
Ġke b
Ġber nama
al nya
Ġj iwa
Ġber l
Ġin d
bang un
A s
ĠL a
Ġmeng en
entu kan
ro duksi
unjuk kan
Ġb atu
ila i
Ġ .
ula si
Ġsem entara
f r
Ġke ti
Ġseba gian
Ġ op
Ġkom un
tern asional
Ġ ob
osi si
D alam
ur n
ta b
u tus
m in
ont oh
r up
c i
c k
Ġmeny er
ĠA k
Ġkh usus
Ġp un
ĠS etelah
f at
Ġber ikut
Ġser i
Ġdi c
Ġpeng h
am atan
ej arah
ĠS M
Ġla gi
u tu
Ġdi buat
ani ta
c eae
Ġ1 7
Ġsela tan
ba ik
Ġm aka
an as
ur i
Ġm ungkin
ĠO r
Ġt e
ĠJ awa
er al
b an
Ġb ola
ati on
Ġma upun
Ġl ok
Ġk al
Ġ201 9
Ġm in
ĠP em
ant an
ĠAr an
ĠK er
ro s
en ar
Ġpen ting
and ar
in da
Ġseb esar
Ġdi g
j i
d is
Ġkel ompok
Ġt ekn
r at
Ġtim ur
arga an
istr ik
. "
Ġ lahir
gr am
Ġpol itik
Ġdi anggap
Ġmen inggal
im b
Ġm uncul
Ġ1 2
versi tas
un ga
il ia
os a
uh an
ĠD unia
Ġperm ukaan
emu kan
P eng
Ġh ukum
Ġk urang
Ġf orm
um at
arta i
Ġ and
Ġ1 6
ut i
si k
Ġmenc apai
ak i
Ġ âĢ
Ġal bum
Ġke ku
Ġc ara
ari k
ĠH al
b ung
Ġla lu
ul er
f er
Ġsebelum nya
ĠK ep
a z
1 8
P en
Ġtan pa
Ġmen ja
Ġ ri
ĠB eberapa
embang an
Ġ19 5
ĠD es
ur at
ap kan
ĠO k
Ġd ep
Ġtra disi
i et
Ġber dasarkan
g e
uda ya
ma in
Ġber arti
r il
Ġh asil
Ġpem ain
on i
ĠK at
ul it
Ġ isti
ut ama
anta i
Ġmen unjukkan
Ġm et
ter oid
Ġk a
o ur
al is
Ġdi ba
Ġk ont
Ġap i
um en
ur kan
etah ui
i v
un t
p an
Ġakhir nya
Ġkap al
Ġd esa
Ġb idang
uk up
and ingan
1 2
ĠM as
ĠT h
ol ik
ari a
Ġkelu arga
Ġberh asil
Ġ empat
Ġj ika
Ġ Q
w ard
on a
ak ar
k er
ĠD em
ar l
idup an
Ġmengh asilkan
esi den
Ġm u
e gi
ĠJ an
f a
Ġdir ilis
f ikasi
ĠI t
Ġpen er
Ġmas uk
Ġm engan
en dah
y p
Ġsej arah
Ġs osial
i o
Ġ201 8
uk uran
Ġk l
et ika
truk tur
ak arta
ul kan
Ġb ukan
ep h
Ġn asional
ograf i
Ġpend ek
Ġker eta
Ġmen emukan
Ġter akhir
and ing
Ġm es
Ġ1 3
u asa
Ġs i
is an
Ġd ekat
o ba
ar anya
emp uan
ri p
Ġla m
S D
ta kan
anya kan
ra b
Ġ '
ĠE n
Ġmeny atakan
ĠY un
Ġpen c
ep ublik
Ġjar ingan
Ġc ukup
Ġw anita
Ġs uku
as ti
Ġl angsung
Ġag ar
Ġt rans
al itas
ri c
Ġsek arang
ĠKor ea
em a
el u
d an
ol og
il us
Ġ wa
s ur
ĠMer eka
s on
Ġp usat
ĠBel anda
S a
ada an
Ġpemerint ahan
1 3
Ġ1 4
Ġk un
ĠO l
is ah
o di
Ġ ot
Ġmendapat kan
Ġju ta
ti c
Ġmemb entuk
Ġg er
k m
Ġla ba
Ġtert entu
ev isi
Ġper i
K e
ĠB r
Ġd asar
ai kan
im an
Ġt uj
Ġmeng g
Ġr aja
Ġpemerint ah
ĠPer ang
Ġmengen ai
ĠD a
en ang
Ġt ingkat
ur us
ust ri
w i
Ġ udara
Ġdi d
do r
Ġl ingk
om or
us e
j ah
ilih an
ĠS ek
Ġag ama
Ġditu lis
ĠA c
as k
ĠN ov
1 5
Ġb ekerja
Ġper b
Ġm ak
ga bung
Ġmen ingkat
l o
ĠA ustr
eb r
Ġper ang
ant ung
Ġter utama
ikut i
to ber
t ember
Ġsp ons
ep erti
ch o
ĠPer t
ti m
Ġ oksi
ĠM ei
rist en
ĠM a
ĠK om
Ġ ef
Ġk ita
ĠPro vinsi
Ġres mi
is alnya
ek tr
Ġisti lah
S ejarah
ak ter
us tus
ar at
im ia
Ġs in
ib at
Ġ ,
p ada
ut rad
r am
Ġsek ali
ĠDes ember
ĠYun ani
ati an
ĠMar et
ĠS em
A gr
tu m
ah ari
Ġsu ara
L aba
Ġj alan
ĠIs lam
Ġs umber
Ġ201 7
eb ar
ĠAran eae
Ġfam ilia
Ġterk enal
Ġla ma
ĠB a
ur un
Ġmem en
usah a
1 6
Agr ilus
ĠR aja
si l
Ġ201 1
Ġ [
Ġsed ang
ĠM an
bu han
Ġmeng alami
bang an
tu a
y i
Ġk or
Ġt engah
ĠOk tober
ing in
duk ung
l in
ari er
w ak
h y
h t
1 7
Ġper empuan
k ang
ag u
i z
Ġpas ukan
ak yat
ek tur
ĠJ uli
aw asan
ĠA sia
Ġterb esar
ĠJ uni
j ar
tu di
Ġh ubungan
Ġsep ak
un ung
Ġ19 3
Ġilm u
Å į
ĠSep tember
ĠPer s
ĠIt alia
st ra
yl l
ĠJan uari
el la
u f
utrad ara
Ġt inggal
Ġs k
er gi
b r
kan nya
ti on
Ġ201 6
y r
l im
ĠP ol
y o
yak it
Ġpro duk
is ar
ar u
es s
bu tu
itu s
lah an
form asi
c aya
Ġk as
Ġsa ja
os t
Ġas teroid
g in
Ġpro vinsi
Ġb ur
Ġker as
Ġc a
Ġ alam
oh on
ub ahan
embang kan
Ġj am
Ġter s
ti tu
ma inan
Ġ20 20
ĠP i
ĠL e
Ġsek olah
er ta
al ik
Ġh id
a uh
ĠT he
ĠAp ril
ĠM usi
Ġ art
Ġsej umlah
Ġa cara
y u
ok oh
un uh
f ilm
l ikasi
d ang
Ġt i
ĠSeb a
Ġ am
Ġb angsa
Ġh i
Ġper j
aman an
Ġ âĢĵ
ot o
1 4
Ġd ew
ĠD ewan
ĠAg ustus
iki an
j ata
r ama
r ik
Ġi bu
v er
eti si
c e
Ġ201 5
Ġpes awat
da k
ul uh
Ġut amanya
ĠIn i
m ad
Ġpen didikan
en tr
Ġb in
P ro
ĠS o
s y
Ġbi asa
Ġn egeri
y an
Ġ ik
Ġr endah
at at
Ġperi ode
Ġ201 4
as e
b on
ing gu
ula u
os p
Ġdi dirikan
ist ik
ĠP ara
y ata
Ġin s
Ġz aman
ampil kan
ak u
ud d
ĠN asional
Ġk at
Ġ ep
Ġmil iter
amp ak
Ġmem akan
ĠR epublik
C ar
A r
Ġa gr
ih ak
Ġk ol
ul us
Ġmem as
as kan
ik it
ung g
Ġketi ga
it am
Ġ201 0
Ġt ah
ĠB rit
et ik
Ġber w
j o
Ġmod ern
id eo
Ġsed angkan
ĠK a
y ek
h ar
ĠNov ember
in dah
ai an
enc ana
on e
Ġb udaya
aw i
an ak
ĠK risten
Ġpenggun aan
ic a
S eb
ĠA b
p en
ĠT engah
Ġj alur
Ġdari pada
Ġ is
um ur
Ġm uda
amp ir
ob il
Ġpro duksi
ĠP a
l or
Ġek onomi
h kan
f tar
Ã ¡
Ġber m
Ġber main
Ġb uku
e z
Ġj auh
Ġs up
1 1
Ġb unga
O r
em i
ĠD engan
A stra
ari an
an k
asa an
Ġdiber ikan
uk i
Ġtel evisi
gal us
Astra galus
Ġg rup
Ġkep ala
fr ika
ĠN ew
Ġp lan
il angan
mas ing
Ġ e
Ġmen urut
ĠS al
Ġmeny ebut
amp u
ĠA ward
Ġla p
M en
Ġ id
Ġh ewan
or n
Ġp ri
Ġin ternasional
o a
P em
ul tan
eng aruh
ag n
Ġl og
ada kan
ĠG ereja
h er
Ġ3 0
Ġmes in
Ġ201 3
] ]
Ġdim ulai
Ġmener ima
Ġs al
I I
ĠG u
ar g
ĠUni versitas
ir ip
Ġb ang
ah aya
Ġput ra
Ġser angga
Ġ201 2
Ġsed ikit
Ġb elum
Ġke k
âĢ Ŀ
ak up
Ġs isi
Ġbela kang
v ia
Ġb intang
ama an
ĠG en
Ġber upa
Ġgel ar
ĠS am
Ġ alat
Ġl ima
l and
Ġya k
U n
ĠR usia
Ġkeh idupan
Ġd ata
Ġber ubah
un gi
Ġdik etahui
elit ian
ĠJ akarta
anj ian
ĠM ala
Ġberk embang
Ġbah kan
Ġind ustri
at e
ebr uari
Ġmas ing
j akan
Ġmeng ambil
w ar
Ġm eskipun
gan ti
in o
as s
op erasi
Ġh ak
el es
y s
on o
Ġb uah
Ġ2 5
Ġn ilai
Ġyak ni
ac eae
k atan
Ġm ampu
Ġpert amanya
u ta
Ġter c
Ġs ungai
Ġpen yakit
Ġpula u
oh n
Ġr uang
ĠA da
ĠS er
ĠA frika
ĠKat olik
Ġk imia
Ġas am
atas an
ĠR aya
Ġef ek
Ġmela wan
Ġda un
and ang
ĠA rab
ak tor
ĠF ebruari
k o
Ġmel ip
Ġdew asa
Ġdi bangun
en i
Ġkar akter
Ġber si
Ġsesu ai
la si
s h
d ung
emba ga
ut er
Ġsen i
Ġ200 6
Ġ200 9
Ġpen ulis
emp uran
esi s
Ġter us
d ul
Ġf ungsi
ĠM at
il ang
esi f
S eperti
Ġlingk ungan
Ġpert andingan
" ).
or t
Ġdi si
Ġad anya
Ġel ektr
Ġ em
Ġmen ulis
Ġpr ed
B ul
Ġpro gram
Ġ200 8
Ġb eb
el uruh
Ġs tasiun
c o
ik at
ĠAg ung
ĠB angsa
Ġp ekerja
ak in
ong an
ab el
Ġd aya
Ġm ul
Ġa c
e us
Ġawal nya
Ġak ibat
" ),
Ġf isi
amb ar
Ġdi j
Ġt angan
si t
Ġse g
oph yll
ĠM ah
Ġtan aman
Ġberw arna
Ġmenc akup
in s
Ġmelip uti
Ġper an
end er
amb arkan
engg ara
tiv itas
m at
ra ga
ĠK ec
lu kan
en ti
Ġw arna
Ġmasa lah
Ġm ata
Ġmat ahari
Ġdem ikian
ĠMen urut
Ġker ja
Ġper ubahan
Ġp osisi
Â ²
Ġp ihak
Ġoksi gen
ir im
Ġ )
asi s
Ġsep anjang
ya wa
Ġput ih
Ġm on
ej ak
ar am
is ode
ir us
Ġkas us
em an
ati onal
ophyll um
ud ul
ju al
is aran
Ġ y
Ġmen ik
im ana
y anan
il la
Ġv ersi
Ġb umi
ong ia
e ga
ch i
Ġ ikan
o x
v e
Ġber at
it h
ĠAl lah
Ġper mainan
ef in
is s
ĠL i
at in
Ġ1 1
Ġdip akai
' s
Ġen ergi
if at
Ġb is
osi s
on d
Ġr adi
Ġpop ulasi
Ġc ontoh
ĠS ur
ĠâĢ ľ
S en
ip takan
ĠA d
m ent
ar n
ak it
is h
un a
om a
g us
k e
Ġdep an
f f
ra el
Ġtradisi onal
ĠBrit ania
ung k
lan dia
Ġform ula
j ek
p h
Ġs truktur
Ġ uj
Ġmemb antu
pat i
ki tab
Ġc epat
Ke uskupan
ib atkan
Bul b
any i
Ġ /
ĠTer baik
Ġr ek
Ġ gi
ber t
Ġdim ana
Bulb ophyllum
ĠS w
b ur
Car ex
tr ia
Ġ angk
anding kan
it al
Ġku at
ĠKer ajaan
Ġa yah
Ġmel ihat
l uk
ĠK al
Ġh ampir
or k
it y
r ak
Ġmeng k
any ol
Ġ im
Ġd ok
Ġp anas
Ġ200 7
as h
ung gal
gan tikan
a ih
e tu
ĠR o
ĠS in
Ġm ew
Ġp lat
Ġk awasan
o lak
ula uan
Ġm eter
umum kan
ol i
Ġga ya
Ġdiper k
tr ik
ĠM al
un da
Ġtuj uan
ĠKar ena
ĠM us
Ġmenja bat
Ġl istrik
Ġm edia
oc k
m er
Ġmemba wa
e or
Ġt itik
w ang
Ġpred ator
v i
amp uan
Ġmen ampilkan
ga imana
e idae
Ġker ajaan
h argaan
eh atan
Ġk r
Ġber ba
ĠP al
amp ung
Ġdip roduksi
r ia
ĠS e
ag us
P R
uk ti
erint ah
Ġin formasi
Ġ ist
5 0
ec ara
Ġagr esif
ĠUn tuk
efin isi
emu an
ĠRom awi
Ġbang unan
ĠLa ut
gi atan
ĠE l
Ġmemen angkan
Ġmeng atakan
Ġg ereja
B er
amb ahan
utradara i
or e
u al
ger ak
ĠBar u
Ġke ber
Ġh utan
l er
ep atan
Ġ19 2
isti wa
B angsa
ot al
Ġterb entuk
il ip
Ġd ag
Ġelektr on
Ġs at
ik el
ĠD esa
da g
ĠS y
Ġorgan isasi
Ġm obil
ac am
Ġberj udul
ĠM ak
P sy
Ġas li
ĠG r
Ġv ideo
osp ongia
ar akan
Ġc erita
el ur
Ġseb elah
ev olusi
ĠH ar
o od
Ġseb anyak
Ġsem akin
Ġpem ber
Ġin st
ah li
ab atan
ĠAustr alia
uj u
Ġda ftar
Ġmu dah
it e
ĠK es
Ġmakan annya
el engg
er us
um an
s us
Ġm ur
se orang
om at
Ġkeku atan
ok o
ĠK an
Ġk aki
S tasiun
Ġber gabung
Ġ apa
ba di
Psy cho
Ġkun o
inya k
enda li
Ġmer ah
ia de
d er
n th
g as
Ġb and
ĠA sil
Ġdir inya
Ġd atang
ub ung
angg ung
Ġtekn ologi
k ar
ĠS i
ala upun
Ġber isi
ot h
Ġk ulit
Psycho tria
Ġkon disi
Ġm ah
ĠAng katan
K eb
Ġc h
ak il
Ġan ti
ĠSa at
ĠD e
imp iade
u angan
ĠY ah
Ġt okoh
or itas
bu atan
t y
ĠPr esiden
el ompok
si kan
ka it
eg ori
3 0
Ġdiber i
ĠRom a
Ġmil ik
Ġg as
Ġinst ing
Ġmeng ikuti
ĠS umat
us un
or o
ĠB i
ĠSp anyol
Ġmengan dung
erik atan
Ġ ib
ĠS u
ĠAsil idae
do k
Ġsela lu
Ġte ori
ĠS el
Ġg aris
ĠIs rael
ot or
en ia
d ana
v id
Ġpop uler
ĠK ed
Ġn on
Ġdi f
u ali
ĠM in
alam an
m u
ĠS ungai
ela m
ec h
Ġp at
b ak
ic e
ul ar
angk ap
ut h
m ar
Ġs tudi
Ġ2 4
h ana
Ġse seorang
ungkin kan
j aran
l ob
Ġ200 4
at atan
Ġd arah
Ġd es
Ġmeng ak
ĠI b
Ã ¼
Ġin gin
Ġberb entuk
Ġberl angsung
esi r
ĠP artai
S t
il li
ov iet
s at
Ġdis trik
ĠT an
use um
r esi
r al
u ga
Ġg e
Ġ ur
Ġs ifat
ant o
ĠK on
ĠP ut
r asi
g o
ĠK h
Ġin ter
ĠL in
ungkin an
p e
la y
a iran
ĠN egara
ĠS en
Ġke giatan
ol l
min istr
uru f
T er
ĠMen teri
Ġm isalnya
ĠT el
ingk atan
19 9
Ġs uk
ĠPers erikatan
b ahasa
uh am
oph agus
ask ah
Ġdis utradarai
Ġ1 00
Ġs ing
em at
eng ahan
Ġber g
uj uk
Ġter kait
Ġmod el
Ġmenik ah
at er
alan an
Ġ[ [
Ġmeningkat kan
Ġplan et
anj ung
om o
ĠK etika
Ġkem atian
Ġber tu
Ġ et
ah am
Ġt epat
ospongia e
Ġpen elitian
n y
ĠDem ospongiae
Ġber f
j id
elas kan
Ġ200 5
ro bi
Ġpengh argaan
ĠB o
b o
ad ar
Ġmen uju
ĠM o
Ġm ol
Ġt ua
ti da
nth ophagus
ri bu
anjut nya
da ya
k ota
Ġak tif
Ġr asa
le x
ĠT ur
it i
an di
Ġob at
ĠAl kitab
Ġw arga
Ġin di
ic k
Ġl emb
y li
amb i
d us
Ġs tr
Ġin t
uh u
s er
Ġlok al
Ġt ip
Ġh itam
tur unan
ekan an
Ġpem bang
n egara
Ġke adaan
Ġkem ampuan
r et
v isi
t s
Ġtumbu h
âĢ Ļ
Ġ20 00
Ġt r
ĠS oviet
ĠP as
amb ah
ud e
Ġ ukuran
eg ang
Ġpem ba
Ġ up
u anya
ĠD an
ĠK eb
ĠC o
an ti
am e
yc et
Ġ arah
di on
Ġk ur
at h
ek tar
S etelah
a u
engaruh i
Ġk o
D end
Ä ģ
Ġpro f
lak i
Ġm irip
Ġs itus
ĠM eskipun
u e
Ġun sur
Ġmem ungkinkan
Ġa b
eda an
M ic
I s
Ġmer aih
butu hkan
Ġpen j
ĠOl impiade
ia ya
elu arkan
ĠS ch
ĠM esir
ahan an
ĠSeba gai
il ik
Ġla ki
ĠJ ohn
Ġin f
ir ing
ycet oph
y n
Ġmenyer ap
Ġn a
ec io
y sia
le y
Ġ2 2
Ġkec amatan
Ġjar ak
Ġke ter
Ġ usia
ĠP ulau
Ġput ri
Ġd rama
ĠYah udi
un tu
si r
atu h
Ġpas ar
om y
ĠP h
lah kan
art emen
Ġp ohon
am es
m al
ĠAn d
Ġor bit
l et
es tiv
Ġkon tr
i e
F A
Ġb ak
is ata
Ġk am
ĠK ons
S ela
atu an
Ġm inyak
Ġp ar
K ar
R es
ĠD in
u atan
v es
e an
la wan
ya kin
Ġsen jata
utus an
g n
erik ut
m um
Ġke bi
ja u
Ġpem impin
Sen ecio
ak sa
ĠA S
Ġ ala
C y
Ġmember i
Ġper angkat
Ġbersi fat
s en
al on
ab i
ĠPi ala
Ġmer ujuk
at al
ĠL agu
ĠA t
Ġter baik
Ġser angan
Ġkelu ar
ĠKe amanan
robi um
Ġr ela
Ã Ń
r ata
Ġd ar
ĠKec amatan
Ġf or
omb yli
Dend robium
Ã ¨
Ġt unggal
Ġ2 3
h al
da lam
Ġmeng a
om ba
ĠAward s
Ġlog am
Ġbar ang
Ġsen yawa
Ġmet ode
estiv al
end eral
do p
Ġm ed
at uran
egi tu
eluruh an
Ġsa ya
es us
Ġen am
Ġmemil ih
f ik
Ġber per
Ġdi adakan
Ġber umur
amp ilan
ĠT V
ena ga
olog is
Ġk end
utus kan
p ura
Ġ ahli
ang eran
ir akan
an dia
Ġp ad
om bang
Ġ uang
Ġs akit
K ota
ĠK u
ant or
t is
Ġre aksi
y am
Ġbeb as
enar nya
Ã ¶
Ġbur ung
Ġger akan
Ġkem ungkinan
Ġmen dukung
ĠSem entara
B eg
ov el
ĠSumat ra
ĠT ahun
edi akan
er d
Ġdib andingkan
Ġm alam
Ġkl ub
ra g
Ġ es
ag am
Ġp and
l es
an ian
Ġpenggun a
Ġsesu atu
Ġg ambar
ĠI l
us an
ĠK emudian
Ġpr ia
at ar
ro gen
Ġmem ulai
s ek
Ġia lah
Ġtert inggi
Ġp in
Ġn omor
eri al
ĠA ir
Ġk m
Ġr ata
intang i
ĠH er
Ġv ari
Ġop erasi
ĠK ap
te in
Ġt otal
z im
Ġp et
dag angan
Ġterl ihat
am en
ĠD ari
Ġla yanan
A N
Ġj awa
Ġmeng aj
imp inan
ber n
j em
Ġke turunan
Ġl em
ĠM et
l us
inda kan
l eks
ĠIn d
Ġdi ta
ug as
Beg onia
Ġ2 1
Ġ200 1
Ġperj alanan
ok us
Ġmenc ari
Ġkes eluruhan
Ġ19 0
Ġs ur
Ġl ar
A c
Ġkeku asaan
Ġb el
Ġkons ep
r en
ĠE ur
Ġberikut nya
ri d
itu r
ĠIn ternasional
Ġlok asi
Ġm agn
z i
Ġkomp uter
ĠB and
Ġper h
p i
al e
ĠD PR
Ġmem bangun
Ġk ini
u at
b or
Ġmen dirikan
Ġl i
k adang
Ġkh as
ĠL iga
B up
Ġep isode
s el
Ġt o
on don
Ġt a
ĠB esar
ĠK ong
Ġmeng ubah
titu si
on en
ĠDa erah
Ġdif usi
Ġp ra
Ġt ampak
ĠC ar
al u
Ġr akyat
asi a
wak ilan
Ġp antai
ĠR a
Ġb enda
Ġm us
Ġk adang
Ġm ati
or y
ĠMala ysia
j ari
urang i
re f
Ġs ar
Ġseri al
op i
enal kan
S h
Ġk ab
Ġdib entuk
Men urut
in kan
Ġat om
ela pan
ĠT a
Ġp ot
K arier
al ang
Ġmeninggal kan
j anjian
Ġpri badi
emp ur
un isi
Ġp asi
ĠU s
e e
Ġindi vid
uh i
b ar
Ġs uhu
Ġ5 0
unc urkan
ja d
ĠMusi m
f i
Ġber akhir
ant h
Ġmem utuskan
ti lah
m on
ĠY o
Ġs ik
ch e
Ġbis nis
ĠP ar
ĠS k
Ġmen arik
Ġpeny anyi
eka isaran
Ġk en
N I
Ġ ulang
Ġberp ori
2 4
il ing
ĠB ombyli
Ġd er
2 5
ĠIn tern
uham mad
Ġj atuh
at nya
Ġb en
et h
Ã ³
tif ikasi
t en
Ġh uruf
ir u
Cy per
Ġkes ehatan
ran i
ed ung
Ġper lu
om eter
ali sis
ĠN o
ast ra
Ġs us
s k
ĠT r
ad ilan
A m
ĠB ahasa
Ġperk embangan
e al
e in
yang kan
akai an
it ra
Ġ2 7
Ġp artai
ep as
Ġ18 9
ol um
ist an
eda kan
ej u
Â °
ĠL u
s ama
ĠL atin
anjut kan
ga la
Res olusi
Ġ2 6
Ġs urat
Ġmer ek
Ġb enar
ĠH ong
I m
M ar
Ġ olah
Ġb ek
Ġad ministr
tu al
Ġc ahaya
ama i
Ġn ektar
ĠU d
Ġseb enarnya
S al
l en
Ġ200 2
Ġl eg
Ġpro yek
Ġdag ing
ĠB udd
ĠI r
Ġant ena
Ġpr ak
Ġ Ã
Ġt ulis
ik si
Ġf inal
Ġt ampil
il le
k h
t ro
Ġper gi
Ġdih asilkan
us a
Ġk an
Ġdi ambil
la lu
si p
ek ul
Ġba bak
Ġpeng embangan
Ġtekn ik
Ġdik embangkan
etap kan
r ah
at angan
ut e
ĠY ang
cara ba
Ġber gerak
Ġt ur
Ġkend araan
ĠB ur
Ġf r
Ġke per
ĠR akyat
t es
N A
ol d
Ġm o
Ġ2 8
Ġpert anian
ĠP or
Keb anyakan
p ek
Ġt entara
ad em
Ġt ep
Ġant aranya
aw an
âĢ Ķ
uc i
Ġpol en
tida e
ĠS an
ĠM ad
Ġk la
Ġant ar
Ġb egitu
ĠKa isar
elengg arakan
Ġsem inggu
eg un
Ġt ekanan
Ġuj ung
p ara
etah uan
Ġm aj
sa an
ap un
th a
ribu si
m o
el ar
Ġl arva
Ġka um
ĠBombyli idae
Ġk il
Ġfisi k
Ġmen ya
Ġt ambahan
er ang
Ġmeng embangkan
ar e
B ahasa
Ġper ingkat
Ġ ang
P o
unc ak
ĠS ula
Ġc amp
Ġs pesi
ok asi
er hana
l d
Ġb antu
ek tor
Ġp an
Ġmenc iptakan
Ġpembang unan
Ġg ug
ab ila
da m
Ġmemper oleh
Ġsal uran
up ati
Ġd ebut
ĠS tasiun
ita b
p ro
Ġ200 3
Ġ er
es ta
ula t
Ġb akar
Ġb elas
Ġ18 8
p ir
y e
Ġn uk
Ġterc atat
im e
Ġpeng g
r as
Ġ x
B erikut
eph rit
ĠK ekaisaran
il iki
i j
Ġj elas
Ġba dan
ĠAc eh
Ġpen uh
ĠT enggara
at ri
Ġh ab
Ġked uanya
b el
d ari
2 1
ĠJ ika
Ġd om
ang a
tum buhan
Ġk amp
Ġun it
Ġmen entukan
Ġm antan
Ġper istiwa
uk ul
Ġper se
Ġbert elur
ĠM on
Ġkec epatan
Ġ $
Ġst andar
han c
ĠB umi
ir e
Ġp ec
m m
ga k
ta dion
ĠS caraba
Ġmas sa
; /
n am
is ahkan
ry s
lob al
Sa int
Ġ ata
Ġ199 9
ĠG o
ri ch
Ġdis ebabkan
res tidae
ĠS ed
ta in
C oleoptera
r u
Bup restidae
ĠE d
Ġterb uka
ĠS up
Ġpert engahan
ĠM ycetoph
Ġmemper t
Ġmengg ambarkan
ĠGen us
ĠK umbang
tu p
g ia
Ġber d
Ġdiba gi
eles aikan
o ch
ob atan
ir kan
K umbang
Ġin tern
ak ili
ad e
ari kan
tr is
Ġ199 0
Ġmeng urangi
on ly
en angan
ĠH in
sat unya
ing gian
Ġ4 0
Ġdi ak
osi asi
bern ur
Ġmem inta
Ġlam ela
Ġmen empat
unisi p
enc e
Ġberba sis
Ġn ovel
amb ahkan
Ġpem buatan
Ġd ek
b ia
gun aan
Ġb us
6 0
ar ak
ĠK un
uj i
ĠScaraba eidae
l ude
ia u
Ġh er
ef er
um a
Ġkar bon
uc ing
M as
ĠC om
Ġter se
bang kan
Ġindivid u
Ġal iran
ĠUd ara
Ġmew akili
illi am
Ġt indakan
Ġpeng aruh
ĠM ela
Ġmemb unuh
Ġberj alan
Ġsekali gus
Ġolah raga
Ġ usaha
Ġper c
inc lude
Ġper dagangan
ĠM es
ent eng
og en
ĠY ork
Ġt ugas
2 3
Ġm ik
er ia
Ġ( ;
r us
in us
Ġ ikut
Ġter d
Ġata upun
wa y
v asi
um si
ĠT ak
w esi
ump ang
ĠN or
Ġde wa
or ld
Ġke la
und ang
c om
Ġpas angan
Ġ( ,
Ġmen olak
amb ut
an o
aja lah
uh nya
upa cara
Ġmeng gantikan
Ġperb edaan
ĠG unung
el d
A k
l ing
ĠKan ada
only include
Ġpr im
Ġob jek
Ġdi la
Ġr ump
op sis
Ġak tivitas
Ġbert emu
Ġsem i
imb ol
F ilm
m ur
Ġpener bangan
ab rik
ĠK am
Ġad at
am akan
ali f
Ġper p
Mic onia
Ġp a
Ġj abatan
Ġh adi
Ġk arier
eb ula
b ah
Ġpem ilihan
Ġmenj elaskan
unisip alitas
Ġn eg
lasi fikasi
el ola
Ġsela in
E ug
A S
ĠY esus
Ġr ep
m us
ĠE p
ĠKep ulauan
Ġca bang
ephrit idae
ing g
it ung
ur uan
im antan
ĠT ephritidae
Ġradi o
Ġh ati
Ġp ublik
ĠJ o
li bat
uk ur
Ġter lalu
anda i
aks ud
Ġmeny ediakan
Ġterse dia
ahan kan
Ġd ah
om i
isi on
Ġs ana
Ġdib intangi
Ġpekerja an
4 0
Ġmeng umumkan
Ġkomun ikasi
ĠF ilip
on y
ec tion
do w
Ġl un
ĠII I
Ġkhusus nya
ĠK em
2 2
di r
eg al
oid es
ro k
Ġ2 9
Ġg unung
ĠB en
ĠPer janjian
ida ceae
eg ah
Ġber diri
Ġsa udara
L a
Ġter buat
ĠP ap
ĠD ir
Ġkomun e
n er
Ġberf ungsi
Ġp osi
Ġt eks
Ġket inggian
Ġk ul
ila ku
ho a
Ġt angga
ik ahan
Ġter libat
Ġtan da
an akan
ac a
el is
Ġk ot
ha il
R I
Ġk os
am in
rom y
ĠL ondon
ac u
ja ya
ĠJ alur
Ġbert ahan
b ul
Ġmeng irim
Ġdip impin
j ang
Ġn e
ĠH a
por kan
ĠD r
Ġkeb anyakan
Ġap likasi
Ġem as
Ġkomp leks
w as
O nthophagus
id en
ĠH an
ĠG eor
Ġbantu an
am at
gal es
Ġb ilangan
ĠD ep
eju araan
Ġdes ain
ong hoa
u x
As para
l ang
egun ungan
uj an
Ġ on
insi p
ĠT e
Ġ198 0
S M
dor ong
Ġ upacara
ant ik
Ġr eg
Aspara gales
Ġsed erhana
Ġc er
es u
Ġl embaga
ambi gu
ak ah
truk si
j ib
ĠSa lah
Ġkomun itas
ri ca
Ġ angka
ĠKed ua
at asi
do l
jadi kan
Ġbela jar
B eberapa
ĠD en
Per t
s ch
Ġs h
ĠE x
or is
Ġmenyer ang
ud ut
Ġb ala
ĠA h
dop si
Ġmer ilis
Ġpeng uasa
j uan
Eug enia
8 0
N ama
Ġ umat
ĠB ad
ut ar
c us
Ġn ebula
ĠF ran
Ġpro dus
ne y
ĠP an
Ġb iaya
ĠSula wesi
el an
ti h
ĠC omp
ĠC or
lu as
ĠE ks
Ġber usaha
ĠD is
ar y
ri g
K er
Ġl int
ĠM uhammad
Ġprof esi
al ih
ĠB at
Ġmol ekul
ar ki
Ġterb atas
Ġper l
angk aian
bur g
ĠB e
ĠSeb uah
P i
Ġdi jadikan
Ġmem akai
Ġpro tein
ĠC l
Ġterp ilih
y al
Ġt h
ĠH o
Ġn amanya
ref ektur
Ġdi am
Ġs empat
Ġp u
ant ara
Ġs aling
Ġst atus
om inasi
er o
us ak
Ġw eb
am bang
Ġpen diri
ec t
ri b
esk rip
Ġn askah
Ġt enaga
ip ta
Ġm ay
Ġber usia
Ġm ekan
Ġt emb
A da
ent al
aya an
Ġsel anjutnya
Ġd ingin
Ġgel ombang
uk it
ĠDPR D
Ġh arga
om un
and er
Ġkil ometer
butu han
Ġtuj uh
Ġ alami
il idae
or gan
ig ht
yp hi
et ri
ĠOr ang
Ġke butuhan
Ġke empat
Ġmer asa
unj ukan
n es
ab at
Ġayah nya
Ġdin y
ĠM aj
Ġf aktor
uj ud
ela jari
ud ukan
ĠKal imantan
ik iran
7 0
Ġd uk
r ed
Ġm it
us kan
Ġper airan
yphi idae
n g
P emb
Ġpeng etahuan
ĠMycetoph ilidae
ro w
ĠLin yphiidae
Ġmenc oba
ala u
4 8
p o
ĠU mum
ind ungi
ber g
ĠDin asti
Ġter tu
Ġs ul
ĠT idak
Ġseg era
h am
ĠS c
Ġter bang
Ġmengh adap
Ġbi la
ĠS ri
L e
Ġposi tif
B B
E ric
Ġmel ibatkan
Ġkebi jakan
Ġhi jau
u z
en e
Ġter n
b al
j ak
Ġm e
l ir
h ari
l ok
Ġkomp onen
Ġper dana
ambigu asi
Ġjawa b
Ġm ili
Ġmemp roduksi
ra c
jadi an
Ġmenga lahkan
Ġdi angkat
Ġk isah
am il
ĠSin ga
ĠS ecara
ĠC on
dis ambiguasi
ump ulan
Ġkat egori
ĠR e
ana an
Ġdig ital
Ġdita yangkan
Ġkon f
Ġb atas
ĠS um
P h
n o
ĠE m
es ter
st em
Ġdim iliki
it is
Ġist ri
ĠS ejak
u el
ang at
Ġdiperk irakan
Ġ =
Ġmemper k
ĠPem erintah
Ġr ingan
Ġberper an
ah u
erd eka
A p
ar m
Ġs is
ĠS im
ĠSela ma
Ġdiper lukan
ĠN a
Ġdi ikuti
Ġ Î
fa atkan
la v
pati ens
Ġt urun
ti p
b ol
id e
i i
Im patiens
Ġd el
Seb a
Ġtip e
us ul
ep t
s in
el ang
ind u
Ġt op
Ġs emb
Ġberh ubungan
ĠTi onghoa
ac k
Ġz at
hail and
ĠD av
Ġser upa
j ur
m os
Ġup aya
ro up
Ġpert empuran
Ġc atatan
ok al
Ġ o
ont on
as ang
Ġ199 8
Ġrela tif
ĠB ang
s tr
ĠB ali
Ġkal angan
Ġb ukti
aris an
Ġlun ak
Ġr um
Ġditer ima
Ġs ulit
ĠSeb elum
operasi kan
et an
tic idae
omp etisi
ĠE k
olong an
ĠS ultan
Ġg ol
ĠSal ticidae
ubung kan
Ġber ukuran
ent itas
un yi
ĠP ak
ĠIb rani
ah a
ch a
Ġkomp etisi
Ġm or
ela p
Ġke uskupan
M a
x ia
r eg
ba ya
ĠG er
Ġpemb entukan
en akan
Ġl ulus
fer ensi
Ġala san
Ġsek su
ĠK o
Ġm is
ĠC ina
Ġp indah
k op
ĠK en
eng ar
Ø §
2 6
ĠN e
ĠKe tua
Ġs ig
Ġm acam
Ġg ar
p un
alan kan
es e
ĠM ich
ĠFilip ina
3 5
es h
Ġga gal
ĠK ol
ri si
Ġti ba
Ġcamp uran
Ġt ulang
og on
li um
ip il
ĠT ok
Ġlap isan
v ensi
Ġc ok
urn amen
ĠS tr
ek u
it t
ĠTur ki
Ġse gala
Ġh ujan
ĠBudd ha
T h
om an
M yr
Ġdisebut kan
Ġac eh
ind ing
ĠZ h
ok rat
ĠS eri
Ġp o
Ġe disi
Ġt ab
erah kan
Ġk ak
ada h
As ter
omy za
Ġk antor
aj ak
Ġtel ur
ersi al
P a
T V
arl emen
eti ap
uk ai
se u
j ing
at o
ĠK itab
Ġb et
art ikel
emba b
Peng hargaan
ain kan
Ġb uatan
ĠMus lim
Ġdip ilih
Ġ era
eh idupan
ĠOl eh
Ġs udut
Ġmen urun
Ġper tumbuhan
Ġmem butuhkan
Ġas ing
p ut
Ġb esi
angk ah
Ġbak teri
S in
ĠP ri
Ġdis elenggarakan
emat ika
. ,
j emen
ĠC ontoh
Ġp uluh
Ġk anan
Ġba gaimana
ĠP usat
ĠA z
Ġkep ad
qu e
tab il
o kan
j ikan
à ¤
Ġmempert ahankan
Ġs itu
yata an
ak h
m ark
Ġ u
ĠP end
Ġju dul
ĠP anas
om as
ĠSek olah
ĠPeng hargaan
c ar
ic ara
us h
ĠA li
of f
int ah
n um
v en
d u
Ġmen ang
ĠKep ala
it ed
ok i
Ġmeng eluarkan
Ġs im
Ġl engk
Ġl embab
ju alan
Ġke ju
Ġar ea
Ġter ba
og yak
An g
any e
Ġpern ikahan
Ġp os
Ġsen sus
Ġmeng etahui
Ġterp isah
emp atan
urus an
Sal via
ogyak arta
Ġkita b
op a
as hi
Ġber c
anj ing
Ġtah ap
erdeka an
ĠSed angkan
D em
ew ati
en tasi
ĠPen didikan
Ġter m
Ġmen it
ĠP angeran
ti ga
Ġv irus
Ġsel es
2 7
il d
Ġm ajalah
ĠT hailand
Ġ3 1
P r
Ġ197 0
ar s
Ġmel anjutkan
Ġpr esiden
Ġmenc egah
ĠP T
Ġna ik
on f
ĠT ai
Ġber sa
Ġrump ut
Ġsamp ing
as inya
Ġmem ainkan
Ġi on
uasa i
K at
Ġs imbol
asil itas
il e
Ġsup er
ter ian
Ġp eda
Ġt eman
asis wa
u as
Ġper caya
ĠJ os
di t
ĠT uhan
Ġsat elit
Ġberj umlah
Ġhab it
ĠI m
ot el
Ġmeny elesaikan
, "
Ġr em
Ġart inya
a el
ĠH ol
unt ungan
on is
Ġmeng acu
Ġpen ingkatan
ĠSeba gian
w e
ala tan
Ġp ed
Ġp abrik
oc i
ĠAl bum
ej ala
Al lium
ĠPer usahaan
ĠM el
Ġseles ai
Ġp ur
o do
p on
Ġl ebar
Ġj arang
ĠH e
ĠS ang
Ġal k
2 9
Ġj angka
Ġpen da
por tasi
Ġdah ulu
pir asi
N e
Ġmemb uka
ĠT inggi
ĠW illiam
ni f
ĠT ekn
angg uan
iet nam
efinisi kan
Ġmeng anggap
ĠIntern ational
em ent
Ġr ah
Ġberb ahasa
elit i
Ġs y
Ġkor ban
ĠKe uskupan
ĠP emb
ĠB anyak
ati kan
Ġkom ersial
Ġmenj al
Ġmemen uhi
j am
ti han
i am
Ġre gi
Ġ199 7
Ġh ilang
ch idaceae
al em
ĠBr asil
Un tuk
sip asi
ag o
ak e
ĠJ alan
Ġkeh ilangan
Ġseksu al
ik al
Ġp uncak
oksi da
Ġju ara
t in
Ġj adi
Ġmeny imp
Ġ imp
ela k
ĠPor tu
Ġm isi
Ġber operasi
Or chidaceae
ĠW al
am u
Ġ199 6
Ġ Âł
arl es
ĠPap ua
v ari
ĠSinga pura
Ġ lahan
eda li
s ection
engk api
t ra
Ġmem impin
Ġw alaupun
ĠB ol
Ġterg antung
urn al
T im
hanc urkan
ĠA f
o i
ĠP et
Ġkep em
bu daya
A g
orm al
ew at
ĠM e
Ġg anda
B andar
Ġk ucing
ĠB ay
y ani
ĠT rans
Ġ( ),
Ġr aya
ĠF estival
B i
Ġduk ungan
Ġap abila
f or
p r
Ġg lobal
ĠAustr ia
M an
Ġik atan
Ġw isata
Ġperj anjian
4 5
ĠV en
Ġn it
Ġtah u
2 8
Ġin ti
Ġg uru
o o
olum e
ic s
esi sir
ĠG re
Ġpes erta
Ġkun ing
Ġs il
ol ia
B a
ak aran
Ġdilak san
Ġper ilaku
Ġprofesi onal
Ġk and
Ġstr at
Ġdi al
m bangkan
ĠW in
Ġtulis an
ap al
Ġberk a
Ġ196 0
Ġd elapan
ĠA lex
ĠP aris
ĠM i
Ġpen umpang
ump ulkan
Ġdilaksan akan
am ar
ĠG a
caya an
g es
eb aran
P ara
it kan
ĠJ enderal
Ġdib uka
z oa
ov e
Ġdil ihat
Ġmemas uki
Ġkec uali
ĠKom un
Ġk iri
ung gu
emb atan
lak u
Ġ18 7
s al
Ġc inta
ori um
z e
Ġdik atakan
ĠK ur
Ġn o
gun a
m y
S ek
3 7
ep end
ranc ang
Ġt api
s ter
ol oph
ap h
iden tifikasi
E rica
ĠBand ung
Ġmili ar
Ġl anjut
ĠJ aya
up iter
us nya
Ġj asa
yang an
Ġ6 0
ĠW akil
ĠD istrik
Ġ199 2
Ġnuk lir
ĠM or
Ġberka itan
Ġdi rancang
Ġber agam
Ġm inggu
Ġk abupaten
and an
Ġid e
Ġmenyebut kan
" ;
d ik
inta an
am ah
Ġp akaian
is e
ali an
ac e
ip ula
al o
Ġs aham
la gu
Ġber ita
ĠK ris
Ġpand angan
Ġp i
ĠY ogyakarta
ĠS tudi
ĠT NI
Ġn y
v ora
Ġs eng
el iling
ĠO s
Ġdik a
ĠY ou
Å «
Ġak si
at aran
ev i
st en
ho u
t op
ĠPert ama
I a
amp i
n u
Sela in
Ġprak tik
Ġm ut
Ġberk ompetisi
l ine
Ġke ka
Ġperb atasan
ĠW ilayah
is kan
Ġp sik
Ġt et
ĠM il
ĠB al
Ġ199 5
P ar
ĠIs tilah
Ġv er
K ehidupan
ĠD ua
l l
r um
ol isi
anj ar
Ġgi gi
Ġun i
ot t
Ġmenja ga
T A
Ġsej enis
Ġdi jual
Ġl e
E p
S p
Ġs astra
Ġters ebar
udd in
Ġdig ambarkan
Ġdil uncurkan
efer ensi
ku at
eb asan
entr asi
Ġmenjadi kan
ura baya
ĠC ity
ĠH indu
Ġpers en
ad emi
Ġker ing
ĠS istem
Ġang in
do ks
Ġter j
Ġm unisipalitas
ĠK ejuaraan
Ġt aw
utu p
j ana
il ir
ak ul
t ahun
yakin i
ig h
Ġber laku
indah kan
c am
Ġ ir
Ġkons er
Ġkem enangan
Ġeks p
Ġper wakilan
ep ak
ĠW orld
I D
Ġp ukul
ĠK ont
ĠP ela
eja bat
Ġdit entukan
inda k
ĠU E
Ġar sit
Ġsaya p
ĠMar k
K ep
. )
ek or
Ġpem eran
E x
ĠT ra
Ġr el
Ġt urnamen
ĠV ietnam
Ġt eb
ĠB upati
Ġberp en
ĠM c
anj i
ĠPol andia
s or
on tr
ĠEn ter
r im
Ġc o
Ġmen imb
Ġ199 1
ara f
Ġ ex
ari o
ov er
Ġh ip
ot ong
Ġw akil
Ġc ender
Ġkr itik
s eb
Ġf en
Ġm ar
ik ir
in is
Ġp ul
Ġmem egang
ri an
erita kan
b y
Ġist ana
Ġk ode
Ġefek tif
19 8
ĠO b
ĠK omp
Ġseb utan
Ġar ti
ĠH en
b ungan
Ġset empat
Ġgen erasi
ĠSw edia
Ġdok umen
Ġrek aman
Ġpen jualan
P an
ama d
Ġs o
ĠD ar
Ġur utan
yar at
Ġsuk ses
Ch rys
Ġg u
ĠS uci
Ġkep utusan
Ġset engah
nif ikan
w ira
in k
al s
ĠS un
E n
à ¸
Ġke uangan
Ġmen engah
ug h
er m
Ġl ang
Ġcender ung
ĠF or
b e
Ġkol oni
Ġp ola
Ġdit empat
Ġp las
Ġp rop
od el
Ġke amanan
U ni
Ġ end
tain ment
ar ut
Ġt on
Ġap akah
Ġmenimb ulkan
Ġdiba wa
f era
etap i
fa at
ew i
ĠP at
Ġper alatan
Ġ :
Ġmat ematika
Ġdi umumkan
don g
ur ahan
la im
ep on
Po ales
ad u
por an
Ġmengak ibatkan
s p
Ġt em
eksi ko
3 8
S i
6 5
en tikan
ih an
Ġkla sik
Ġmeng atur
ob oth
Ġmemp elajari
Ġkal inya
Ġl ewat
emp a
unc i
Ġmed an
Ġak tor
d in
Ġsing el
Ġber la
ĠP ur
ja ga
z o
Ã ¤
Ġdi sa
ĠS tar
ĠB ab
Ġseh ari
Ġek or
ĠBa gian
Ġdi gantikan
ara wan
Ġop er
on takan
lah raga
v al
y anya
Ġsk or
ind ungan
9 0
b eda
unt y
Ġmen dorong
Ġterba gi
emen terian
eku ensi
Ġm edali
ia ceae
ch us
ĠU r
j il
Ġmem er
Ġr encana
f t
Ġ ;
unj ung
lawan an
Ġs c
Ġ ula
aj i
ĠPen y
Ġdik ar
Ġmel ewati
h luk
dak nya
Ġg angguan
Ġla yar
don ia
es an
Ġdi masuk
ĠK i
om e
Ġsig nifikan
ĠB ers
Ġg edung
Ġc alon
Ġke lah
ĠP asi
ĠH i
an do
Ġku alitas
Ġkelah iran
r in
da l
di um
arti sipasi
Ġmem ang
Ġri bu
on c
it o
wa i
w ood
Ġb e
Ġs ipil
Ġdi ubah
p em
Ġ199 4
Ġs tabil
s eperti
Ġpel angg
c m
rop is
ed erasi
Ġperh atian
Ġr as
Ġkeber adaan
er angan
ĠR es
el s
unj ungi
ĠB ank
Ġke budaya
ĠM useum
asi tas
p s
u ara
ol or
Ġelektron ik
Ġv an
ĠS ar
Ġp al
g ang
Ġp engan
Ġpen dukung
k l
Ġbersama an
Ġpen ampilan
ĠAb dul
Ġke tua
j en
la in
Ġter si
ĠP refektur
Ġpert emuan
alik nya
ah ami
Ġsep en
Ġmel indungi
Ġkl or
Ġdiny atakan
Ġg elap
A b
ĠS ing
Ġpot ensi
Ġ199 3
Ġs emu
Ġa jaran
os h
Ġdik irim
ĠPa us
l og
Ġpem enang
Ġdiperk enalkan
ĠF I
Ġbek as
as aran
end era
ĠM eng
ind ari
versi ty
Ġat uran
ĠL ama
Ġs ah
P ol
op e
Ġkel urahan
anc e
Ġkebudaya an
Ġkeper cayaan
jur it
Ġdi an
Ġdit etapkan
Ù Ħ
Ġca iran
h at
and atangan
Ġdis t
p eng
Ġg aram
Ġdiper oleh
Ġadministr atif
n an
han es
Ġ |
ĠHin dia
ur angan
Ġkom edi
main kan
3 3
Ġpad at
Ġlengk ap
gr asi
ing s
aw atan
m ani
Ġke da
uk iman
g ota
Ġf itur
ĠMela yu
ok a
Ġmen aw
s inya
Ġj antung
D a
Ġin ves
ud ra
es erta
Ġseba b
mp an
elah an
it z
ĠP o
Ġmeng adakan
g uruan
ow n
D ia
ol os
Ġpes an
sik o
Ġdok ter
Ġak tris
vari asi
ĠM aria
ĠCh ina
Ġ +
Ġf asilitas
em ia
Ġdisi arkan
Ġan im
Ġbi ji
ak tif
ta f
ĠB ul
ĠPer sia
ef orm
ĠP ark
gan isasi
Ġs ir
ĠA di
ĠM eksiko
Ġ/ &
Ġ aman
ĠAk hir
Ġ195 0
C l
eg an
6 4
el e
ĠR umah
arg anya
ir m
int esis
Ġmak hluk
ind ung
Ġmenghadap i
Ġh ib
Ġd inding
Ġan alisis
Ġtep i
ĠEnter tainment
ula ta
Ġorgan ik
en ter
ĠS ub
Ġke ker
Ġdi ant
ĠS uk
ba u
Ġinf eksi
Ġter jad
ĠM ay
Ġberk ata
el ih
ĠN i
tr ans
Ġ8 0
Ġhid rogen
Seb uah
ultan an
endali kan
Ġdimasuk kan
ĠE r
akul tas
Ġpin tu
S y
it s
ĠS atu
ĠUE FA
Ġdi mainkan
Ġar us
Ġneg atif
% .
ĠIns titu
Ġberg antung
Ġ anjing
ĠU S
Ġp artikel
Ġpol isi
l ih
ĠC a
aks asa
eg at
Ġpem ilik
r and
Ġker tas
Ġsus u
ĠKun o
Ġib unya
Ġbertu gas
ĠJ ames
Ġkur si
Ġlint as
Ġsatu an
ur e
Ġmembuat nya
Ġorgan isme
G e
g ar
Ġk uda
Ġk re
A R
Ġdi dasarkan
Ġv olume
ali b
aw al
Ġmeny ebar
Ġel emen
la ck
g is
ĠTok yo
Ġangk asa
Ġmemb eli
ev el
tern atif
Ġpasi en
ĠQ u
Ġri siko
4 7
Ġbur uk
T e
ĠD arat
Ġmenc atat
M er
Ġter tua
Ġmenaw arkan
of t
ro t
ĠR os
ĠRo bert
v an
en se
ĠB os
Ġk aya
do d
Ġpr insip
Ġro k
amp aikan
eda k
Ġak ar
ot ik
Pem ilihan
ĠMal uku
ek tro
Ġseba gaimana
S I
3 9
Ġsem acam
ĠS ir
ĠO n
R o
Ġla mp
ej o
Ġp esisir
ub likasi
Ġs ini
Ġmem an
Ġak ses
6 7
ĠB ei
emb ak
An tha
Ġperse gi
Antha xia
or it
ing ton
ow er
ta i
ent ingan
Ġun ik
ana g
ĠO lahraga
Ù İ
arg et
ĠC O
itu do
i us
Ġdi operasikan
ĠT or
ĠAran eidae
eg angan
ĠS ab
ĠG roup
S c
omun ikasi
ger akan
alif orn
ra y
Cyper us
Ġh alaman
ĠV al
w at
od es
Ġuni versitas
angk alan
Ġmut lak
ĠM ur
Ġik lim
angg il
w in
on j
Ġf ot
Ġmas jid
Ġput r
ĠBad an
Ġterjad inya
.. .
Ġdic iptakan
Ġber variasi
Ġbert anggung
Ġberpen dapat
ĠAs s
enti an
uduk i
Ġlu bang
Ġpela buhan
Î ±
Ġsu ci
Ġg ula
Ġmin uman
S em
ic us
ĠU k
ew as
h ak
Ġb iru
aj ian
s o
oboth ris
k ata
ag ar
Chrys obothris
Ġs api
ĠH ari
Sa at
6 8
Ġro ti
Ġangk atan
Ġsepen uhnya
ana u
S e
ĠUt ama
Ġkem erdekaan
er ing
il u
Ġdia dopsi
Ġeks tr
R ho
Ġla poran
Ġm ag
ĠIr landia
p atan
ar o
Ġp ep
ĠM ul
Ġl omba
J alur
Ġin duk
K ons
angg ota
ori fera
al bum
di al
i ang
Ġp ejabat
jem ahan
ĠK el
ĠM art
er jakan
5 5
Ġ ular
Ġdiant aranya
ĠI ran
od era
e wa
oc ok
S ecara
D engan
Ġc iri
Ġpert ahanan
Ġ198 8
Ġ nya
Ġv okal
Ġdil engkapi
Ġba yi
ĠH ukum
anj utan
Ġmen t
ĠB ro
Ġlap angan
Ġmela yani
ĠSup er
Ġmus uh
ĠS urabaya
Cyper aceae
Ġl el
Ġkontr ak
Ġpec ahan
reg num
ra x
Ġpers amaan
E l
Ġc m
rist al
ala i
ĠW ar
em ar
ĠT aman
ĠS etiap
es m
Ġsitu asi
b aru
Ġberj arak
um b
Ġmen jual
angg u
en am
Ġmeng al
z in
Ġkes empatan
Ġa yat
Ġsep uluh
end ron
ĠDav id
ĠP orifera
Ġt ema
et as
ik nya
Ġf oto
Ġpas ti
la man
to doks
Ġb alik
Ġas tr
Ġmenj alankan
il itas
ĠM isalnya
ĠGu bernur
Ġmaj u
e aksi
h ta
tur ut
Ġr asi
ah lawan
Ġdep artemen
Ġkab ar
r itik
gabung kan
Ġn ormal
ic tor
ampi ons
ep askan
ov ision
Ġsub regnum
I N
Ġpert unjukan
was ta
Ġd ampak
ĠI V
cho ol
ĠPara zoa
Ġp adang
Seba gai
ĠR as
Ġal ih
ĠD aya
Ġmik ro
sa fat
Ġ7 0
f ord
Ġas pek
ĠE s
ĠM ong
ĠUni versity
Ġot ak
Ġti ap
ĠC al
aliforn ia
Ġmengh ubungkan
c al
Ġm i
erint ahan
Ġp egunungan
ur asi
ov a
omo tif
el uk
erus alem
Ġlang it
Ġp il
ĠK ata
j uk
am bu
ĠTer dapat
Ġmay oritas
ungk apkan
Ġpet ani
ĠW alaupun
Ġ194 5
Ġsk ala
Ġberb icara
Ġb oleh
ud us
ĠComp any
Ġsek tor
D ari
ĠH am
rop ol
Ġ qu
Ġper intah
P S
Ġke jadian
Ġsin yal
ĠPro gram
Ġke untungan
20 10
w eg
Ġpro s
Ġpr as
[ [
ĠT etapi
Ġ3 5
Ġtrans portasi
und er
Ġmana jemen
k y
ĠCh arles
a ir
ĠO t
Ġdik eluarkan
ĠSep erti
Ġf iksi
Ġdip l
Ġt ewas
ada i
uj ian
w it
Ġn i
Ġoksi da
7 5
ĠG al
Ġher bi
B C
Ġc ur
Ġstudi o
Ġberh enti
Ġse s
Ġmat eri
Ġet nis
ĠM ed
ĠPert empuran
Ġpra jurit
u y
and ra
ã ģ
Ġk opi
Ġdalam nya
ĠAm er
imp unan
ingin kan
b enar
o ok
Ġb r
Ġp ilihan
Ġper ak
4 6
ebih an
Ġdin amakan
epend en
Pen y
Ġs ab
or an
om er
3 2
Ġk ola
Ġj ari
Ġsin ar
Ġhal us
Ġb ulu
P ulau
la d
as ter
Ġta yang
Ġherbi vora
F ab
K etika
N ya
dod endron
3 6
eb at
ĠL an
Ġ198 9
jem ahkan
ut if
Ġl ip
Ġs am
Ġk rit
Ġ198 4
un uhan
Ġku il
Ġm otor
ĠD el
Ġmer iam
elu arga
Ġid entitas
tan si
l ot
Ġg olongan
Ġal ternatif
Rho dodendron
et eksi
y on
Ġdi dapat
ba ikan
ĠG or
eta kan
elam atkan
ĠS at
Ġseti daknya
rom osi
Ġdim aksud
E S
Ġke jah
et is
orm atan
ĠAg romy
Ġa gak
Ġdih ar
l ic
and u
Ġs imp
ĠK ek
Ġmener bitkan
ĠW i
Ġmela inkan
Ġmen ekan
est ina
n el
Ġp ari
Ġt ik
ĠI bu
ĠTel uk
z on
tur un
Ġkonf lik
ok ok
ĠEur ovision
Ġkejah atan
o is
Ġditempat kan
ik e
uh ur
aba ceae
m ada
ara i
si da
ĠAn t
Ġterk adang
4 9
Ġb at
ak am
Ġkep ulauan
II I
Ġ isi
ĠC an
Ġdis k
Ġilmu wan
Ġlem ak
M et
20 12
M usi
it ungan
ĠM ag
oda l
ĠIl mu
K P
S istem
uk isan
Ġmemer lukan
Ġdi bu
ah as
on or
om ena
A M
ĠR atu
Ġmengh indari
y aran
ĠB ra
ĠR ah
Ġkep entingan
um ba
ti a
ĠM ari
om en
C C
v ille
Ġmed is
Ġg ra
ĠP el
Ġse ja
l ar
ĠS hi
Ġper wira
ĠBei jing
on el
ĠV er
ing inan
Ġmak na
Ġdi ra
Ġm ac
3 1
Ġkel ima
ĠR ec
A d
ĠP ra
Ġpeny ebab
Ġp anggung
K I
ur unan
ĠW il
Ġt enggara
Eric ales
Ġd arat
at orium
Ġn asi
Ġs wasta
ic an
y m
Ġt ata
ĠP adang
Ġm aksi
z h
Ġmas akan
Ġdi butuhkan
ĠBer dasarkan
ang i
Ġpeng obatan
ela t
ĠT ip
ed ral
b us
ju ga
Pemb entukan
G er
T ipula
Ġr aksasa
ĠG e
amb at
ĠMusi c
) ;
an am
ar ing
Ġk ampung
per asi
; &
op ogon
Ġber n
Ġbet ina
Ġs isa
ik o
mos fer
andatangan i
Ġt angk
ĠK ementerian
Ġmeng in
Ġmen da
ic um
ec il
ma e
Ġt aman
id ur
Ġak u
hir onom
Ġperm intaan
Ġmagn itudo
l inya
Ġs ay
Ġtel epon
g ent
Ġr uangan
Ġt oko
Ġmenempat i
oloph ia
ĠPa ul
4 4
emb ah
ag an
ĠKont es
l os
ĠT o
Ġkes a
Ġm eta
Ġm eja
ĠA wal
Ġke ag
Ġin donesia
Ġla wan
Ġn yata
ĠC ir
en nis
Ġr angka
oh ol
in ia
eh i
eg is
iv e
Ġdiak ui
ĠS m
ĠR ich
Ġpeng alaman
ĠHong aria
F abaceae
Ġtampak nya
ĠDen mark
inc in
ĠT entara
ol ok
Ġb ulat
Ġg ejala
Ġp ajak
ĠTai wan
f ek
ic u
Ġberp artisipasi
S o
ĠK im
r em
Ġmeng aku
Ġc or
Ġdem i
Ġlar utan
Ġd ewan
im at
Ġmeng arah
ter olophia
ag e
ĠCh ampions
Pi ala
ĠA th
ĠH ak
l ima
z idae
Fab ales
Ġmenjal ani
Ġen zim
Ġel ektro
Ġt ran
di e
ĠB ah
us s
us ulkan
ĠL ou
Ġf okus
Ġs ingkat
Ġga g
Ġanim asi
entr al
ing at
Ġ9 0
inc i
ac ang
Ġper aturan
Ġmin eral
Ġs utradara
Ġp asal
ug erah
t el
Ġl en
Ġba wang
Ġga dis
ĠB h
p is
ĠT ang
Ġdip engaruhi
any ikan
T I
re e
Ġka isar
Ġmul ut
Ġpeng ganti
or si
ĠM aka
ĠY erusalem
K on
en aran
Ġperl indungan
Ġmengh ar
k rip
ĠS emua
ol lis
ĠP eter
Ġm elah
Ġf ase
angan i
eform asi
3 4
Ġsis wa
Ġmur id
Ġtern yata
Ġsemu anya
or us
ĠS uku
Ġpen onton
200 9
Ġper si
Ġg raf
op us
os ok
ĠH el
b ra
ob ot
ĠIn jil
ah at
uj uan
Ġditer apkan
20 13
y ur
ĠP ic
ed er
ĠLe e
ĠTan ah
Ġ5 00
in er
ak ti
Ġmeng umpulkan
Ġmenc etak
etu ju
ĠKris tus
Ġmemp engaruhi
Ġd efinisi
ĠAr t
200 8
ec k
Ġdiper caya
Ġmin im
Ġkelu arganya
adem y
ĠAgromy zidae
al kan
Ġtahun an
Ġart ikel
Ġmen ambahkan
ek tif
ump ul
v el
Ġpu isi
C O
on da
ĠC ol
Ġmat erial
Ã¡ n
d y
Ġba ja
Ġdit ambahkan
Ġmah asiswa
on an
Ġpen dapat
Ġlemb ap
Ġmend ek
Ġkan ker
ĠN az
ĠOr todoks
ĠAn da
inda han
Î ¿
Ġd uduk
Ġt idur
aj at
S ungai
x y
Ġhidup nya
odi fikasi
Ġt uan
ĠS anto
ing atan
ul unya
Ġpen ya
id es
ĠM em
in ga
ĠM ac
Ġmeng angkat
Ġbertu juan
ĠB as
eskrip si
Ġpela ks
an us
ĠI st
ĠC alifornia
Ġr ambut
M eskipun
and angan
ch er
Ġhadi r
Ġ â
il angkan
Ġmeng hancurkan
ĠC ap
Ġdisa jikan
S ejak
Ġmengak ui
Ġ il
ĠGeor ge
Ġt urut
ĠAn ak
ĠS il
ust ak
ĠK han
P A
Ġd ataran
Ġarsit ektur
Ġmel arikan
angg ang
embang unan
Ġsekitar nya
Ġkap asitas
Ġ evolusi
in et
Ġb ank
Ġintern et
Ġ us
ĠM ont
Ġmelah irkan
ro f
Ġag ung
5 9
Ġn ig
amp ur
ĠUn ited
ĠSw iss
Ġpenda patan
m it
20 11
Ġka lah
6 6
em uk
omat is
risi tas
Ġm useum
ek atan
Ġdek ade
w aktu
et ron
ic o
elas an
Ġgug us
ĠJ ac
Ġdisi mpan
ra ja
iz inkan
istr inya
Ġdin amai
ĠM is
ĠFI FA
t ales
er ahan
al isme
ĠA ri
ĠB u
amb aran
por t
Ġmas k
Ġmemperk enalkan
Ġt empur
ĠP e
ul t
Ġmeng uasai
ung kan
wa jib
o j
Ġsem en
Ġpr es
Ġdan a
ĠAk ademi
ab iskan
ĠGr and
si on
ent risitas
Ġsat unya
Ġp etu
Ġkons entrasi
romosi kan
anc angan
ĠA kan
ĠH y
lak si
Å ¡
Ġp impinan
Ġtan k
Ġat mosfer
Ġj antan
enda k
Ġdar atan
M es
Myr tales
Ġind ependen
ter an
ant inya
Ġmen angkap
Ġdit ampilkan
at um
Ġ istrinya
Ġmen teri
ala p
ass ar
Ġmengal ir
Ã §
ĠN omor
ĠA v
st ein
ĠDi visi
ĠM edia
wa b
Ġdi visi
Ġhukum an
un e
Ġterb anyak
dam aian
ro c
Ġl angkah
ma is
amp ai
entu an
Ġro da
Ġsemb ilan
Ġpeny imp
Ġas linya
y th
Ġpem an
Ġput aran
ks anakan
etuju i
ev er
ju angan
ĠG rup
ĠG ar
ot landia
19 7
en angkan
Ġt ari
ĠT u
Ġla tar
Ġsub s
Ġa yam
or dial
ĠF ri
ĠO nthophagus
Ġdila porkan
Ġke bang
ob i
uk kan
r isti
Ġk unci
et es
in ter
Ġkeag amaan
b in
at is
Ġ198 6
Ġkamp anye
ĠS osial
ĠB l
m b
Ġh ist
ati us
Ġdit angkap
Ġmen etapkan
Per ang
Ġpern yataan
Ġkand ungan
Ġim am
Ġli ar
Ġm ini
Ġben ua
C ontoh
l emen
ĠN et
a bad
ĠF o
elam atan
Ġ ul
Ġmem erintah
os us
Ġvari asi
Ġb al
Ġprim ordial
Ġkont eks
Ġgar apan
Ġt un
Ġj enderal
ant es
ĠPer dana
Or ang
ĠL ap
Ġmengk laim
ĠPut ri
h asil
Ġm ula
in n
Ġh om
ĠPer wakilan
Ġhid angan
ĠPal estina
isi si
Ġmem bu
og or
eg r
p us
Ġh ulu
Ġla bel
anggap an
Ġri tual
Ġd ulu
is k
Ġp am
Ġdi dukung
uk tikan
Ġn ominasi
ĠL o
ah ap
ĠK ab
ac un
Ġpenduduk nya
Ġm anga
up ai
Ġdid efinisikan
s emb
Ġb eserta
ĠD o
Ġf lu
Ġm arga
Ġp inggi
res s
Ġm edi
Ġ198 7
oc era
sek arang
Ġb enteng
ĠR I
ok rasi
el le
Ġseba ga
ĠPas ukan
ĠB ulan
Ġef isi
in j
im er
ĠUs kup
ĠS oc
Ġdir ek
Ġke tu
ĠA si
bo ard
omy ia
Ġdikar enakan
K omp
Ġform at
Ġprodus en
Ġpendek atan
Ġ Å
elak aan
ol ar
ed uk
Ġpemb unuhan
si us
p u
ã ĥ
Kar ena
al og
angk al
re y
K em
Ġmenc eritakan
Ġs it
Ġtepat nya
ĠR um
eliling i
it if
Ġmer ebut
Ġr esi
ala s
Ġini lah
Ġt emp
Ġrem aja
ut o
Ġprodus er
Ġp ap
ĠDem okrat
Ġbangsa wan
p tasi
Ä «
k ira
Ġk endali
ak ta
ro versi
ĠH asil
Ġdip asang
ĠAng gota
osa urus
A yat
Ġr ilis
Ġsing le
ĠS unda
ĠK as
Ġro ck
akhir i
irm asi
Ġmela ksanakan
c el
Ġter bit
Ġl epas
Ġhabit atnya
Ġgag asan
ak uan
Ġmeng unjungi
ontr ol
ĠR i
Ġres olusi
K a
omat ik
en jata
Ġk adar
ĠV ictor
Ġbert indak
Is tilah
ustak aan
di m
ed eral
5 8
di h
Ġtim bul
Ġmeman faatkan
ĠS l
enc anakan
Ġk aw
ĠJ a
Ġb as
Ġ198 5
Ġse ekor
h u
6 9
h ip
Sela ma
ĠÂł ĠÂł
5 00
ĠF ir
Ġberp engaruh
ĠAg ama
ĠMich ael
Ġt ropis
Ġmem uat
aw inan
ĠPro f
Ġot ot
Ġr ekan
ĠEn g
d eb
Ġgereja wi
Ġu ap
ĠC hironom
Ġmak am
ĠP es
ir aan
ap us
Ġpend erita
ĠSM A
ĠPasi fik
d engan
dow s
Ġkomp osisi
Ġwa jah
k it
ĠM os
Ġ Ø
ĠS chool
ĠB atu
ir ik
ĠF C
Ġt ri
weg ia
P T
Ġl iga
) "
S er
Ġins tr
d uc
Ġas et
Ġmur ni
s c
en ek
Ġmutlak nya
C o
on ik
Ġak adem
Ġart is
A T
m un
m isi
R ub
Ġm m
Ġk ain
Ġset ara
Ġga laksi
ĠAs teroid
w akan
Ġdi yakini
ĠS ej
P emba
per t
Ġber ganti
Ġk aca
et t
Ġs araf
Ġmeng ungkapkan
L atar
Ġmela porkan
ĠK os
v is
Ġberb atasan
Ġdid uga
B ab
Ġsa ud
e donia
Ġak s
j er
Ġdi atur
ĠH ab
Ġkontr ol
z er
Ġr atus
Ġp ulang
ĠâĢ Ķ
Ġfisi ka
v o
Ġp ew
ti dak
a bu
ã Ĥ
ĠBi asanya
Ġsar ana
w ati
ĠT ro
Ġpen urunan
Ġan ime
ĠYo hanes
j as
Ġketi dak
ĠâĢ ĺ
Ġgug ur
Ġdi man
Ġkons truksi
me wa
etisi mal
Ġmit ologi
ĠT anjung
ad angan
ĠAl eks
ĠMat ahari
ĠW e
ons umsi
lak ukan
r ap
s ki
ses an
Ġplan etisimal
ĠT om
Ġl antai
eg rasi
ub ur
Ġspesi fik
ĠEks entrisitas
ali fikasi
tor an
ĠN ag
ĠT ar
ad en
Ġmu atan
w o
m ati
Ġmel uncurkan
Ġdim akan
Ġkont es
ta g
Ġfil safat
S u
osi l
J enis
w isata
in tasi
tur es
seu do
mais uri
elengg araan
Ġs ambil
Ġdan au
ĠUn dang
ĠS tadion
Ġber as
Ġ" "
M on
Ġ ungg
Ġ4 5
C A
la tif
Ġdit unjuk
Ġsemi per
Ġk emb
ela jah
v ers
Ġk in
m eng
Ġr antai
per i
ec uali
ĠM ana
ret aris
untu t
ĠSk otlandia
Ġmemba ca
ĠOr ganisasi
j ukan
Ġhal nya
Ġb eg
Ġma u
ĠDep artemen
Ġcok lat
H ubungan
etak kan
Ġsi ap
Ġadministr asi
ea u
orm ati
yp h
Ġc ocok
Ġpat ung
Ġdim ensi
P I
ut ip
ind er
Ġres ep
ĠG i
k on
m ah
Ġc ac
asa lah
Uni versitas
ĠB ola
per im
Pro vinsi
Ġsebaga inya
at t
uk e
Ġpen emuan
amb o
st ensi
k om
B S
Ġper ayaan
Ġbukan lah
Ġpember ontakan
ĠT iga
Ġmend uduki
aj aran
ĠJ umlah
ĠPro ses
im i
ida h
Ġfr ekuensi
I V
ati ons
ati annya
Ġbin atang
M ah
n ia
ĠD NA
og o
Ġberk urang
Ġmekan isme
ly wood
agu e
Ġ uskup
Ac mae
Ġpen eliti
os o
Ġap apun
eb on
oba an
ĠS eh
uk is
ek utif
Ġser angkaian
Ġsen iman
1 00
angk ut
Ġk acang
Ġt arget
Ġr ute
dok teran
er t
ĠS emen
t ant
erint ahkan
Ġkom b
An d
Un dang
p es
Ġt amu
A t
Ġper awatan
ri sis
eg as
Ġt aj
Ġk ami
Ġpolitik us
ĠP op
Ġmengh abiskan
Ġman is
Ġmem erintahkan
ĠT oba
adap an
ĠPak istan
Ġdial ek
Ġkeker asan
L i
om etri
ĠC amp
Ġba bi
Ġpo in
Ġkepad atan
Ġdika itkan
ag ama
und ur
Ġot omatis
Ġkarakter istik
Acmae odera
M ela
x i
4 1
ĠK ir
ĠG ol
han i
Ġp or
ĠChironom idae
9 9
Ġp apan
Ġsemiper airan
Ġd u
6 2
Ġkar tu
Ġlam bang
ant en
aw as
ĠTim or
4 3
l eksi
Ġmenempat kan
ĠAn ti
ut ra
anc ang
empur na
R T
l ia
ĠN ational
O n
P as
Ġpeng adilan
Ġp aruh
u tasi
Ġmenyimp an
e tus
5 7
Ġ Â
e on
Ġp l
j uh
Ã ¢
ang lima
un tuk
or eng
Ġlingk aran
Ġlem ah
ark as
ĠG ir
ĠDe wa
Ġd ll
em e
Ġk ristal
Ġdit andai
Ġ193 0
ĠF er
ub e
S uku
Ġdin asti
T rans
is et
Ġp arlemen
unc uran
E k
eb unan
akan an
Ġdib unuh
Dem ografi
am inya
Ġl ukisan
ig n
len ea
l on
p anjang
Ġ198 3
atri um
in um
Ġl olos
ch en
us antara
ing i
odi um
Ġregi on
Ġinter aksi
ta d
Ġter da
ĠTh omas
ropol itan
Ġ umur
ĠAc ademy
Ġp ip
Ġ198 2
t empat
as akan
Ġa jang
Ġ196 8
Ġm ala
Peng gunaan
men ia
ĠB ahkan
ĠM ic
ĠEp isode
4 2
en ian
ha di
Ġ197 2
ent ing
as on
Ġberb ahaya
ĠKes ultanan
us uf
ega wai
Ġ q
ent angan
Ġ197 9
Ġk lasifikasi
ĠM erah
ĠKes ehatan
li g
ĠKar ya
ungg ung
Ġkomb inasi
Ġper guruan
ori al
ĠSo uth
ant as
art o
Ġpener bit
ub uk
Ġdis usun
onf irmasi
Ġkeka isaran
ek i
ul e
200 5
Ġal um
Ġsem esta
Ġag en
Ġpeda gang
ĠR oy
Ġber guna
6 1
Ġmen entang
ok er
ĠMas jid
Ġdij elaskan
Ġbel iau
ah aman
B ar
Ġmeny elamatkan
Ġfen omena
ĠF lor
Ġmel intasi
Ġz ona
Ġsek elompok
Ġdist ribusi
B ur
m is
Ġs uka
ara si
op ia
ump ai
Ð °
Ġanak nya
ĠBel gia
p in
Ġ å
ak nya
dom inasi
Î ½
ari tas
eb an
Ġl uka
form ula
Ġun dang
adap tasi
Ġsp ir
ĠSer bia
Ter dapat
am er
Ġan c
Ġintern al
F C
]] ,
S m
S pesies
aj ar
ov asi
Ġterk ena
Ġ194 0
ĠL uc
ĠF akultas
ĠS ong
ra ina
Ġmenyer upai
m isalnya
ba iki
Ġk ala
Ġber da
Ġpem ikiran
anya an
Ġk umpulan
ĠF in
ell o
Ġca ir
ĠAss oci
on er
end uduk
Ġsej arawan
S el
Ġku tu
Ġ( ).
N ew
ol an
Ġper gerakan
Seb elum
ĠSel andia
Ġper ingatan
Ġsi apa
Ġmengen akan
ĠY upiter
Ġb angk
ĠR p
hy t
Ġdi as
Ġpeng ikut
Aster aceae
T a
ĠT ri
ont ak
Ġmengaj ukan
Ġv ir
Ġtak hta
Ġsek s
i arkan
m et
al k
ĠA y
G en
M o
osi t
Ġseng aja
Ġpela yanan
Aster ales
Ġs empurna
Ġdi ganti
ĠW h
ebang saan
Ġpasi r
Ġ18 0
Pert empuran
at es
os hi
f o
ah it
ĠA bu
id er
ag ung
ĠPortu gis
ar as
Ġm am
Ġp angan
Ġkr im
ĠNor wegia
ĠI tu
if e
ĠB anjar
or s
ĠP BB
Ġpeny elenggaraan
rit ics
Ġmend erita
rid ge
Ġhib uran
A D
P ot
w ara
Ġ asi
Ġc incin
ĠGre en
Ġk alau
ri da
Ġmela mbangkan
p ur
Ġdiba wah
ĠAh mad
p ol
Ġar ke
el ia
ĠD ur
Ġf lav
Ġr angkaian
Ġ3 00
ĠUt s
Ġmenurun kan
ĠP embangunan
ĠR evolusi
6 3
Ù Ĭ
ga si
op s
D e
Ġpem buat
erti an
) :
k at
ĠS urat
Ġ" (
h atikan
Ġker ap
Ġradi asi
or nis
Ġg ame
op ter
si si
is ual
Ġdit ambah
Ġal b
ĠPut ra
Ġsik lus
Ġ198 1
Ġ0 1
8 5
f eksi
Ġla yak
ela i
ĠJ on
os en
Ġmenya dari
c on
Ġdag ang
ĠN ur
P M
Ġpro m
ĠI rak
ĠW est
J o
K u
ar ap
ĠB is
Ġ197 6
Ġberl anjut
ost olik
ĠMak edonia
er e
ĠJ in
ola si
Ġga bungan
% ,
Ġhar apan
Ġputr anya
T an
Ġditu jukan
s ari
á »
Ġsik ap
K om
al isasi
im us
ĠRa il
Ġd en
ord in
i on
Ã £
ul itan
ĠAk ibat
Ġkela pa
angg ar
Ġku alifikasi
p ar
al in
di am
en ario
ĠF ox
eks p
Ġberl okasi
gent ina
Ã ´
ra ch
bor asi
or ong
Ġdip indahkan
Ġmeng ej
ĠH u
ĠC han
Ġs ol
G ereja
r ing
Ġkom ik
7 7
ĠL alu
Ġkec elakaan
Ġterh ubung
ĠMusi k
Ġleg is
Ġb ukit
Ġkar yanya
romy za
Ù ħ
ĠS ol
Ġsu aminya
Ġtertu tup
Ġp ak
Ġ197 8
ĠD ewi
Ġr upa
T ahun
d es
m ata
emp ah
Ġbeg in
c ens
Ġb endera
ĠM y
Ġset ahun
Per s
embali kan
di us
ma cam
Ġa bu
ud ang
Ġkon vensi
Ġkam era
h ai
ĠB on
uda l
ĠInd ustri
ĠS eni
Ġ194 8
Ġak un
n ah
por ation
Ġlap is
Rub iaceae
al angan
ĠPer k
Ġmel ebih
y ana
aw ang
Ġgu bernur
Ġkesa lahan
Ġter ang
re am
Ġ Ð
G entian
ĠB entuk
amad ya
Gentian ales
Ġmen a
Ġbi ologi
ĠY eh
Ġterl ebih
ĠFran k
Ġkepem impinan
ĠHen ry
ĠR am
Ġperk awinan
O S
Ġb on
ari at
Ġditer jemahkan
Ġkam ar
ĠB or
Ġterb aru
Pemba gian
Ġj urnal
Ġditu tup
Ġgen etik
Ġ ev
ĠR aj
Ġwa fat
Sa lah
Ġmen ak
Ġkot ak
B A
B el
Ġb ut
Ġke j
Ġpela tihan
w or
Ġlel uhur
h is
ĠD u
Ġmemas ukkan
b all
d ing
Ġp unya
ĠJ adi
Ġk ira
B ac
Ġr evolusi
Ġdasar nya
Ġberba gi
Ġdiman faatkan
J ohn
e et
Ġb ul
Ġmemb ran
Ġder ajat
Ġdihar apkan
D ewan
ĠM oh
Ġaks ara
Ġse ber
ĠB ak
ro v
ĠD om
ur o
Ġrok et
at istik
Ġh orm
ĠN abi
H al
ĠAn ton
Ã³ n
ran ala
Ã º
ĠC ek
angg al
ikasi kan
T i
Ġn g
aw ali
ĠSam udra
Am erika
jas ama
Ġin fr
Ġj embatan
ê ¦
Ġc ar
ord s
Ġtersi sa
ĠM u
Ġmend engar
G rup
ĠF r
ograf is
Ġ ok
am ba
Ġangg ur
f in
ga gal
ĠAkhir nya
k es
tu juan
Ġl anda
inggal an
Ġinstr umen
ĠMas yarakat
Ġg empa
Ġ3 2
Ġberk uasa
ĠRich ard
R L
ik h
ĠA lam
ĠD anau
Ġ4 00
Ġpem uda
arn o
Ġuj i
Ġse luas
aran kan
tes tan
Ġmes ki
ĠSem arang
Ġstrat egi
Ġkritik us
K es
at ik
Ġsep eda
j ian
ar jo
Ġmeng gabungkan
ep si
kar ya
yakin an
ba gian
dis ingkat
Ġs emp
Ġdip andang
at s
Ġt enis
si um
iet y
ĠEk onomi
Ġk abel
ĠK y
Ġmem ahami
Ġjam ur
k el
ill er
ĠB ila
200 6
ĠKap al
turun kan
g on
ar ch
Ġs amb
ĠK elompok
ĠL os
b esar
ĠW is
Ġdip as
o us
el li
Ġp ir
ĠP l
Ġcok elat
ĠN ig
og le
Ġmemb edakan
arik sa
S up
Ġmendek ati
A ir
ĠMus a
Ġb or
Ġper ut
ĠM edi
Ġl etak
ĠC oll
ela ki
b our
Ä ĩ
Ġkepad anya
onj ol
p l
un sur
ĠN usa
Ġdiper t
ĠMaj elis
Pan icum
Ġh a
Ġkol eksi
Ġp ekan
Ġb upati
8 9
Ã ¸
ku it
Ġtip is
T idak
ian o
Ġmel epaskan
Ġp angkat
es ain
ĠT s
R eferensi
os c
th e
Ġ0 2
Ġmelebih i
ro id
C er
Ġmul ti
Ġb lok
eg e
Kat egori
Ġdi aj
Ġse iring
eb askan
Ġpember ian
ĠTekn ologi
ĠW ali
esu aikan
Ġp andang
Ġik lan
ĠB us
Ġdis ingkat
Ġbatu an
H ar
M el
end ek
u tur
ĠB oy
p lin
ĠMan ch
la g
Ġt en
is ter
ĠB ill
Ġt ahan
ot e
tiv asi
Ġmenikah i
olisi an
la via
Ġtertu lis
Î ¹
usi r
Ġmener apkan
ĠMas ehi
ĠMak assar
ĠIn ter
Ġsar jana
J ika
osi a
anta u
Ġmen emp
Ġl ine
ala k
Ġpa gi
dir inya
oleh kan
uc k
hyt omyza
Ġm undur
ada ban
erta i
Ġpenyimp anan
Ġdi turunkan
ok u
wang i
d ur
ĠM az
ich i
Ġ eng
ah ana
E R
Ġ ali
Ġmen etap
ĠU p
aj uan
Ġkarier nya
k ah
ani el
ed e
ila si
Ġdib edakan
d ar
ĠC ritics
Ġr eli
ĠN ik
ĠN ap
ĠPer b
erik saan
Ġpenj ara
uh kan
Ġkem atiannya
Ġam at
D istrik
atu kan
Ġmengh entikan
u w
á ¹
Ġm al
or c
ĠSim on
5 3
ent ar
T ory
em uka
Ġf er
Ġt engg
Ġanc aman
H ari
Ġkeb ebasan
Ġk ub
Ġse tu
Ġ19 20
Ġdis er
n ik
Ġs yarat
Ī Ĵ
ĠA bad
ins pirasi
ĠBay ern
ĠAssoci ation
Ġmen ara
Ġf os
ĠC arl
ĠIn do
Ġl eb
v in
Ġb encana
Ġke enam
Ġmen di
Ġn enek
ec ah
lu an
lan et
enda m
ĠSel anjutnya
he im
ĠIntern et
Ġmen ambah
uc ur
ĠUts mani
ĠD on
a cara
Ġd etik
ro g
ant ren
Ġb aris
uan tum
n s
Ġberk ebangsaan
Ġada ptasi
ĠMan usia
ĠP in
Ġl iter
ĠV ir
Ġper enang
Ġberk isar
m em
en z
Ġr usak
Ġ196 9
ĠN g
ĠO ri
udaya an
ĠPert engahan
ĠUk raina
tu re
ja an
Ġkes ulitan
em is
Ġke lam
eskrip sikan
K ata
us c
Ġmemba yar
ĠKom ite
ed ur
ĠSa int
k amah
Ġn ada
Ġb unuh
Ġh el
8 7
l ora
ĠT ab
Ġkons tan
ĠContoh nya
Ġrah asia
epak atan
ur g
ap p
eh er
ĠE ast
ĠNaz i
m ana
Ġv on
Ġdij umpai
I S
M S
is hi
Ġh otel
Ġbert ambah
ĠÃ Ĺ
ĠAdi pati
Ġp aru
ĠB uku
Ġa udi
l s
Ġf estival
ĠW anita
Ġof f
Ber dasarkan
Ġsela m
Ġku e
Ġmeng enal
ĠCor poration
Ù Ĩ
ĠP arlemen
âĢĿ .
la p
ĠK ro
Ġinves tasi
Ġmen andatangani
S tr
ĠR h
ĠV I
Ġpemb ela
aya san
ĠB andar
om et
Ġw ar
ĠL et
b as
Ï Ĥ
ĠS D
Ġ196 5
ĠPa ulus
ĠE li
Ġmenjadi kannya
Ġlam bat
V ID
Ġmemb ahas
200 7
ĠM eja
Ġ197 3
Ġmemas tikan
vi tasi
Ġt ol
ĠAda m
Ġ ),
ad wal
l ub
ĠV an
Ġform al
ya sa
os kop
antu m
Ġp unggung
Ġb ot
Ġb asis
ra in
ma di
Ġk rom
Ġga jah
o e
Ġin dah
ĠO p
ub i
ĠR ama
ĠSe orang
ipta an
Ġad ik
Ġb anj
ons tr
Ġpeny ebaran
si al
ĠB an
ĠSur iah
d at
ak aman
ĠP ekan
ul ia
Ġmeng identifikasi
ua ca
Ġplat form
d inal
Ġmem engaruhi
Ġtubuh nya
ĠL ib
ros s
t ika
Ġkons umen
In donesia
Sin opsis
I B
ustr u
l ihat
z ah
ic al
Ġpro t
Ġ197 5
gi ri
Ġw ali
Ġp arah
Ġb o
ap ak
ent e
re v
Ġ amp
ol lo
Ġl urus
si m
ĠP on
Ġrum us
P ela
ala ya
Ġ196 7
ĠMes ki
S umber
ang e
ĠS ta
up u
Ġterb ukti
Ġtekn is
Ġkul iah
lu e
ĠLu ar
b ot
si den
it ch
Ġg una
Ġdic atat
Ġalk ohol
G unung
un y
Ã£ o
z u
Ġl ib
Ġpem ro
en o
asi kan
Ġpem bu
Ġat ap
ĠAt l
Ġlamp u
p ha
Ġp h
ĠAr gentina
Ġpelaks anaan
5 6
N amun
Ġdom est
Ġhadi ah
j in
Ġmengh ilangkan
men tasi
Ġprom osi
n et
as ci
is ahan
us ta
ĠR adi
eb us
ĠR ob
r ew
Ã ±
es or
Ġc on
res entasi
Ġsup aya
Ġplas tik
Ġke inginan
Ġberp indah
R aja
Ġp e
Ġberf okus
H y
Ġk ajian
ĠD ay
5 1
la i
g anya
Ġl elaki
Ġsela mat
Ġger ak
' .
ĠK antor
ĠPortu gal
Ġsetu ju
amp ing
ĠU l
ec i
Ġpemba wa
B anyak
eb arkan
og n
Ġpelangg an
per atur
encana an
r Ã©
Ġpel indung
P P
Ġmeng ulang
ĠP il
ul lah
uc apkan
Per k
amb ing
Ġat let
R h
ba b
ter masuk
Ġmeng akhiri
Ġpen utup
eks ual
8 8
asih at
Ġ197 4
ĠWin dows
ĠK ing
Ġkar ang
Ġterk emuka
Ġmengirim kan
ĠR ed
Ġ197 1
ĠSep ak
ĠKom isi
ĠL ab
ĠV i
y g
ĠN usantara
ov i
M eng
ĠTekn ik
K al
P terolophia
Ġt omb
Ġpemba gian
Ġmen angani
ĠT enis
Ġperk ebunan
wi jaya
rib ut
Ã «
en diri
ĠU N
Ġ15 0
ĠP D
ĠMil iter
Ï Ħ
ent ik
ĠJ am
ĠSeh ingga
ĠY e
elih ara
L am
ak na
enal an
Ġkont roversi
ba ch
ĠB lack
ĠL ampung
Ġn abi
our t
Ġib adah
Ġd o
Ġt eh
ĠSa udi
5 2
Ġl um
ĠG ames
Ġmusi si
Ġ197 7
f an
Ġb om
Ġpen si
P ranala
ĠK eh
su f
arti kan
Ġ196 3
Ġkont en
5 4
ul um
ĠBer lin
f ur
Ġb elahan
Ġn et
Ġmemba gi
Ġmagn et
Ġpengg emar
ĠAng eles
Ġm odal
Ġb aku
Ġv al
ĠHin di
ĠLou is
Ġmask apai
m ula
Ġmeny ampaikan
Ġj ustru
Ġ194 2
k as
Ġseb aliknya
C atatan
os om
ĠMa x
S uk
m inal
ĠF ranc
Ġsi ang
ĠF A
ot op
Ġpel uncuran
ip ennis
200 4
Ġte ater
el ek
od in
ĠCh rist
7 9
k apal
Ġmeng endalikan
ĠPro testan
ĠAs h
Ġcontoh nya
Ġklor ida
ĠF i
Ġte or
Ġnuk le
ĠJos eph
Ġlegis latif
f iah
Ġmem isahkan
ati c
Ð ¾
Ġt abel
ĠM ir
Ġc om
Ġw ith
Ġ196 4
ĠCO VID
l it
Ġgen der
se y
Ġot oritas
ugerah i
G u
Ġwa jib
Ġkon si
ĠR ock
ay an
ili kan
ont o
Ġpara sit
Ġpes ta
Ġdimaksud kan
ĠT ujuan
Ġmend atang
Ġse gi
Ġv s
Ġsi aran
l ow
G rand
iga si
lih atkan
h ol
Ġt es
th i
Ġpengh asil
iv er
Ġ ol
ĠK ari
Ġmeng isi
ĠO perasi
Ġteb al
Ġp ikiran
Ġb udi
Ġmengaj ar
ĠDir ektur
Ġb y
ini um
M I
og an
ef f
C ucur
Ġt arian
Ġ ov
Ġh impunan
Ġr et
Ġj en
ĠC i
anc ur
e im
Ġmem icu
ĠH as
itu al
ĠS ap
ĠT ex
Ġl ong
ĠL at
Ġt ek
ĠPem erintahan
Ġ it
Ġ usul
ar usnya
ĠT ah
ĠE st
oph ora
Ġdil anjutkan
Ge ografi
z ar
Ġangk utan
ĠInstitu t
ĠC ur
Ġitu lah
Ġdil arang
ash ington
Ġterda ftar
= "
ĠP egunungan
ĠJ er
Ġpener ima
am ika
Ġmen onjol
Ġpeng usaha
ekn ik
Ġseni or
Ġleg enda
ĠSoc iety
E C
ĠH anya
olog y
ĠPh ilip
ĠB udaya
Ġmeng atasi
Ġf akta
Ġd osa
Ġp adi
esi um
ĠAp ostolik
g y
ĠM ik
Ã¼ r
b ek
z hou
ĠH all
bit ales
emp or
F inal
M at
perti mbangkan
m es
Ġmen andai
olah an
Ġi zin
Ġpel uru
Ġkelam in
c ap
Ġp id
Ġkes elamatan
Pen didikan
Ġperc obaan
ĠA yah
har ma
Ġpras asti
N egara
Ġk asar
Ġgra vitasi
ej ah
ĠAl b
ĠAth ena
ebut an
angg ilan
Begonia ceae
M A
Cucur bitales
Ġmemp romosikan
ĠPeng gunaan
Ġkal imat
Ġkeper luan
V ern
Ġper ahu
Ġtert arik
Ġk uantum
ĠLe ague
ĠPic tures
r ea
ang nya
Ġmeny erahkan
Ġb ambu
as angan
ĠP ari
Ġpas ca
anc arkan
ĠFin landia
j e
ĠA ug
ĠKe tiga
Ï ģ
Ġmur ah
Ġseja uh
Ġt or
ĠJ enis
Ġad egan
B and
T ak
Ġmel arang
v ei
w ana
en n
Ġsu ami
Ġdi lay
Ġperh itungan
Ġ æ
on gi
ay at
ĠPen er
rat is
Ġb unyi
ĠP u
ul l
ĠF rancis
hir e
ol ep
ĠSebelum nya
ĠIst ana
B r
ĠK um
om enda
ab eth
uda k
ĠS ak
ĠL ove
Ġv ektor
K or
Ġmen eg
ĠH ingga
ĠGer akan
c an
Ġla bor
tr on
ĠPen elitian
Ġd rum
Ġber ulang
Ġin g
' ,
t il
ĠA cara
Ġn atrium
op er
Ġkeju araan
ĠBers ama
ef isi
Ġkebi asaan
E T
S S
d eka
pe disi
ĠA tas
tiv is
Ġtep ung
lasifikasi kan
ĠM ada
Ġkoloni al
Ġb uruh
ian us
Ð ¸
Ġkek urangan
ĠRum ania
at ing
man en
Ġtaj am
on ya
Ġmeng ukur
Ġc ap
Ġnit rogen
c ak
j enis
Ġke yakinan
ĠL uk
Ġmeny ukai
Ġpenc arian
k al
ing u
ont alo
Ġterm inal
z y
ĠS ip
et o
ĠV ol
Ġb uk
ĠB iz
Ġseri us
b uk
ar nya
Ġb ung
ĠK udus
Ġsamp el
ar di
ĠR ep
lahir kan
As al
ĠPend uduk
ĠMart in
7 8
Ġs osok
Ġres toran
Ġ194 9
b enda
im aan
Ġmeng und
amb ilan
Ġhabit at
ĠRas ul
Ġdi oksida
Ġer at
Eric aceae
Ġmenekan kan
en anya
it or
ĠAr menia
ĠP enc
Ġper juangan
ĠL omb
20 19
Ġketu juh
Ġberk el
ĠMed an
M useum
h el
ĠL ebih
eg oro
ĠE v
Ġkeb enaran
atal kan
u gi
ti pe
Ġpert anyaan
ib i
am is
ĠT amil
E m
eg o
Ġdip ro
Ġpemb ukaan
ĠW ales
b ola
ĠB et
ĠP lay
Ġula ma
ĠS imp
ata an
ĠC he
asa lahan
c aan
Ġp ej
Ġrasi o
b arang
an kan
ah i
am bangan
ota si
en ta
Ġj er
Ġmem u
Ġf osil
emb ilan
Ġkons umsi
Ġdiam eter
Ġpen ari
anc is
Ġ196 2
Ġti ang
ara g
ĠM od
ump ur
az z
un n
ĠK amp
Ġbers enjata
Ø§ ÙĦ
E O
Ġpeng ukuran
Ġdian ugerahi
Ù Ī
ĠC enter
Ġc uaca
emu da
Ġhar fiah
Ġsur ya
esm ikan
b ahan
ĠS itus
ti r
Ġl im
ĠK az
Ġkons titusi
Ġ196 6
Ġregi onal
A L
Ġp egawai
Ġv isual
ĠZ aman
Ġeks ekutif
Ġ194 7
ĠKong res
w anya
ĠP ad
Ġar mada
Ġeks perim
Ġpot ongan
S an
Ġmen unjuk
ĠB ag
ĠB ern
g orit
Ġter jemahan
Ġro h
utu h
Ġlemb ah
row n
Ġpeng akuan
ig ran
ĠS ud
es aan
ni e
wan cara
Ġkarya wan
Ġtab ung
as tr
ĠF orm
uj ung
ers on
ublikasi kan
P el
Ġla ju
Ġdip en
hasil an
D in
et ta
Ġmer usak
Ġkeb akaran
p ons
Ġt in
Ġrek or
ĠY ud
ĠKer eta
N a
Ġt ali
ĠIn c
fi eld
Ġp eta
il in
ĠB ukit
ul ih
Ġkek ayaan
M ycetoph
ĠY usuf
Ġseh arusnya
t ek
Ġc uc
eg or
ĠF re
oni um
Ġser at
ĠMar os
das ar
krip si
S am
u ch
Ġdilay ani
ĠR egi
ĠF red
Ġkar dinal
ĠT op
Ġl emp
ĠY ak
Ġkont ak
Mycetoph ila
Ã ł
ĠP atri
ĠC at
Ġmeta bol
K apal
S d
usi f
Ġsek under
ung u
Ġn ol
ĠKeb anyakan
an tikan
Ġm arah
ek t
os ter
Ġsen apan
Ġpela ku
b atasan
Ġ ari
ĠAn tar
Ġker angka
Ġ3 8
anti um
Ġdar ing
ĠT api
Ġagr egat
ah im
ag ia
Ġdis ertai
Ġmah kota
Ġoper ator
Ġber lawanan
om ata
ĠF ac
ĠEd ward
w ork
z an
ĠW ang
ĠKomun is
Ġj ahat
Ġpeng amatan
re en
Ġmem andang
ent h
Ġdik elola
200 1
Ġs tadion
ak ia
ip h
ask et
Ġlulus an
ĠUtsmani yah
KP BB
gagal an
Ġpemb akaran
Ġratus an
Ġlabor atorium
ĠS ci
Ġmen ahan
ur ai
ĠB anten
et te
ĠL im
Ġ194 4
r ut
er re
Ġb it
ĠF ederasi
Ġberp ikir
itam in
9 8
Ġla zim
ay anan
Ġpeng ertian
ĠMet ro
Ġtern ak
Ġpinggi ran
uf f
Ġp angeran
Ġp ahlawan
ed y
Ġsub jek
Ġkal ender
Ġula san
ĠJ apan
ĠTel evisi
or f
K ec
M y
la c
onal d
ĠDaya k
Ġdomest ik
A wal
Ġmemper kuat
T S
b arkan
ĠC ara
ot esis
ĠMal ang
ech n
ti ba
9 5
ula tus
K abupaten
an n
Ġk ron
os e
ek utu
ĠK ara
Ġper buatan
ĠJ ean
and ria
war e
A P
es si
ara ja
ia o
ĠN as
Ġpem ilu
ch in
S tadion
di aan
eb u
las m
A h
S ep
Ġbi j
Ġdir ektur
Ġlok omotif
Q ur
il y
Ġmeng ingat
inj al
t at
Ġdi isi
Ker ajaan
ĠSemen anjung
ĠD ig
end ra
kin i
Ġd ada
on im
Ġmen utup
ad aran
Ġdit inggal
ĠP anjang
as truktur
ĠK ali
ĠD ok
Ġkes epakatan
tim ologi
X X
ant angan
g am
Ġpen ja
ĠMar s
Ã© n
ing kan
ĠM aya
ĠD ong
Ġant ariksa
em ik
angk atan
tasi kan
Ġdig elar
Ġkeda laman
Ġmenghar gai
b ir
ĠP antai
ĠL ang
Ġpenulis an
ĠD KPBB
ĠV ideo
Ġper ek
ĠT empat
In d
ĠIm am
Ġber agama
ok ol
ab ri
ĠY ayasan
Ġem osi
b atan
is ensi
Ġper asaan
Ġc omp
Ġked udukan
Ġlar ut
on av
ĠS om
uk im
Ġtem peratur
Ġdi lahirkan
Ġdit anam
ĠMah kamah
ĠKons tant
Ġmaksi mum
em on
Ġmem aksa
Ġpen jaga
Ġkom andan
Ġ194 3
Ġmin or
ĠL embaga
Ġhist oris
Ġdi identifikasi
Ġr ub
D is
m usi
s tan
w u
ĠM ol
ek usi
Ġgen re
Ġpro perti
Ġkes uk
anda l
Ã¨ s
Ġpendiri an
um or
Ġpotensi al
Ġl engan
Ġr ap
ot anya
D esa
ĠM uda
amb atan
Ġ194 6
Ġmin um
ĠRail way
ĠJ uga
Vern onia
i bu
aw ah
Ġdew i
ĠSo ek
uali fikasi
Ġon line
Ġc adangan
ant ang
Ġ7 5
Pert andingan
ĠN AS
Ġpeng elola
es el
Ġj aya
Ġf em
gan da
L iga
S eri
t engah
Ġp okok
Ġr a
Ġmeny usun
aya kan
tiv e
Ġ195 8
luk kan
Ġke dokteran
ĠC D
Ġr uf
ĠPem ilihan
S truktur
Ġk asih
rik s
O N
Ġa wan
eg u
Ġpeng unjung
Ġd r
ap ur
asi r
ord inasi
ter s
yar atan
R umah
Ġdik uasai
emb ahan
Ġbersi h
O C
Ġt ir
Ġh ancur
ri e
m ed
u en
ib et
Ġkes enian
Ġkos ong
hadi ran
M in
s un
si fat
is m
ind rom
Ġstrat egis
b le
Ġp ay
ec ahkan
Ġpas ang
Ġmemper baiki
Ġperk ota
ĠGo ogle
H a
M asa
Ġman faat
Ġor i
ribu sikan
ti ons
ĠM am
apan uli
n ow
Ġa w
Bab ak
G o
c u
Ġk ant
Ġin vasi
Ġter api
Ġn ut
ĠR iau
ĠKep utusan
ep s
Ġtur unan
9 7
d el
g askan
Ġse waktu
Ġmeng ganti
op el
ĠH ip
Ġberk umpul
Ġbeb an
m el
ut in
Ġh endak
Ġ3 3
Ġperk iraan
Ġberl ebihan
ĠKeb udayaan
w w
Ġk andang
Ġpem ahaman
Ġtak ut
Ġ196 1
K o
t ol
Ġt arik
ul ukan
Ġl eher
Ġters endiri
Ġm ode
em as
Ġg ram
ĠW ol
uran si
ĠPert andingan
ar ya
da erah
ensi f
Ġpeny i
eran kan
E timologi
Ġdi eks
ĠC la
Ġberk as
ĠBr un
Ġs olusi
Ġl irik
id ul
int as
Ġi i
ĠNig eria
Ġr ef
Ġtah ta
Ġkos m
tip ula
ĠColl ege
ĠD ik
. &
en do
ol et
ur is
ĠB intang
per k
Ġsk enario
ĠAwal nya
ĠVictor ia
ĠG un
ĠAp ollo
200 3
ĠSm ith
9 2
Ġmen untut
ĠB ung
Ġeksp resi
Te ori
ĠKro asia
Ġper adaban
eh an
Ġbanyak nya
Ġ4 8
Tory mus
Ġperkota an
B ad
j an
Ġper manen
et s
ĠD am
Ġbi ologis
Ġkeb un
Ġpil ot
A f
ing atkan
ĠP am
Ġbi ara
ĠV ersi
Ġterj un
B e
ĠM otor
Ġg ran
Ġn om
ed ang
ĠSh ang
Mas jid
T P
b ara
Ġb ant
Ġmemper luas
Ġmah al
ĠNor th
Ġkemb ar
Ġsemp it
pat en
Ġ emp
ĠP ember
ĠL aw
Ġmor al
Ġdipl omatik
Ġs ch
Ġdip isahkan
ic ago
Ġdir encanakan
H asil
Ġp eti
Ġk risis
teri or
Ġribu an
ĠRec ords
P ut
Ġk i
ela kang
Ġpen ambahan
M ay
ong ga
Ġw arisan
Ġbers ejarah
Ġge ografis
c ul
o or
Ġband ara
ir ah
elu aran
br ahim
Sem entara
Ġper unggu
Ġmeny el
sk y
Ġne ut
t em
Ġh or
das an
Ġres pon
Ġmuncul nya
Ġkot amadya
ja bar
ĠH id
re jo
Ġmemb uktikan
ĠCh i
Å Ĥ
Ġ urusan
do s
ir k
Ġg ul
ĠH awa
n us
u alitas
am ati
ĠS anta
it iga
Ġdih itung
ĠAlex ander
Ġkrit is
K B
Y ang
ĠS ah
is ai
ĠP anda
ungg uhnya
SM P
ĠK ai
ĠM odel
Ġpem eriksaan
emu di
anj angan
oy o
Ġtop ik
Ġk ong
Ġmenyebut nya
Ġpenj elasan
onav irus
ia wan
Ġg injal
Ġpen a
Ġkeh ormatan
200 2
ĠSt ev
ĠSek itar
R e
b and
Ġn or
ĠG ra
Ġked atangan
Ġins titusi
ĠSy stem
elur ahan
s ar
Ġd oa
unj ungan
ĠPut ih
umbu han
any u
uk ang
ek ar
Ġmemb atasi
Ġmenc er
Ġsp in
ĠAmer ican
ĠLan ka
Ġg am
tr in
ĠAr j
ig ur
Ġmengg anggu
ĠP lat
Ġmeny elenggarakan
Ġpun ah
ĠAkibat nya
madi yah
H i
K h
Ø ±
emuk akan
Ġter ikat
ĠR eg
Ġsaud aranya
S ch
Ġ ara
ĠS us
ĠDa ud
p aran
Ġmeng elola
os of
ub lic
Ġtangg ung
L ept
g aria
ĠS ara
Ġber turut
ĠM iss
man n
ĠTer l
inta i
Ġko in
empor er
D eskripsi
U S
b olehkan
Ġt embaga
Ġv arian
Ġ3 6
Ġmas sal
k us
Å Ł
ia si
or um
ant e
Ġp re
ba i
angk utan
Ġdic apai
Ġmenja wab
M ari
ar ahan
Ġket at
Ġtim bal
Ġpec ah
Ġne ur
al us
Ġger bang
Ġterd ekat
Ġkepem ilikan
B o
c era
ir iman
ĠAl l
Ġma lah
li e
Ġdom inan
Ġpembela jaran
J alan
as ana
Ġber ta
Ġan da
imp i
Ġ Ä
Ġke hadiran
Ġper damaian
ĠL ima
ad is
T r
Ġdi inginkan
Ġdik enakan
anc am
ros oft
Ġp ark
Ġw ujud
Ġ195 9
Ġmengund urkan
k eb
ĠJ upiter
ber ger
ĠPer mainan
ĠCh a
Ġpetu gas
ĠT ol
Pro ses
ĠKh usus
ĠJ i
Ġc ak
ob ati
eli um
ech us
c epat
at on
is ta
up si
esar kan
20 14
E s
S ar
Ġmen embak
ĠF il
ĠPert ahanan
og ram
Ġm uka
ul uki
eta il
ĠS umber
Ġhari an
risti an
Ġmember it
Ġw adah
Ġb l
ĠS ans
Ġla tihan
af f
ĠTer b
Ġdebut nya
eduk si
Ġp ac
Ġper baikan
ot an
ĠW ashington
Ġpros edur
ĠK et
Ġpeng isi
ĠW a
A ran
ĠB ri
Ġdis ediakan
angka bau
ektr um
Ġmis kin
Ġr atu
ed ar
Î µ
Ġt egangan
ik u
ĠB ogor
Ġtel inga
Ġ195 6
P artai
ti g
Ġpsik ologi
anag romyza
Ġse sama
ĠS han
ob o
ry p
tik al
ĠCo unty
Ġmenga dopsi
Ġmerek am
ak t
Ġper annya
Ġmem indahkan
Ġpeny er
Ġ195 5
k en
an si
ap as
Ġr eferensi
Ġkar b
est e
Ġdim enangkan
G eor
r or
Ġg and
Ġ3 7
/ /
P G
n ilai
Ġk otor
es er
ta p
Ġpeng endali
unt ungkan
Ġkol om
2 000
ĠD er
ĠG edung
Ġmend efinisikan
ĠTex as
ak o
ĠS ejarah
Ġ195 7
G lenea
ĠS et
Ġl imb
ĠN am
dah ulu
Ġprim er
S ma
Ġb asa
ĠP ot
Ġh angat
Ġr udal
ĠL ong
ust in
Ġ ).
Ġke dalam
uc apan
ĠAp i
ĠAp p
ak lukan
ĠTro ya
A F
Ġt entu
Ġber ju
Ġge ometri
Ġba gus
ok Ã©
Ġd uta
at ra
Ġmeng or
op es
ĠH otel
Ġdik endalikan
ĠY u
Ġpela jaran
aks in
Ġbala p
m ara
Ġs ari
ĠD aftar
Ġr ancangan
Ġmengh itung
L ihat
k elompok
n on
Ġter jual
ĠB ima
arta wan
Ġsin etron
film an
8 6
E ks
b en
k g
k ep
eg ahan
ump ah
ĠSh ah
ĠB est
ri o
Ġmo yang
ĠPri x
ĠS ya
Ġmen yang
Ġmeng usulkan
H ol
Ġke gagalan
Ġpend udukan
jad wal
ent o
ma il
ist ribusikan
Ġditu gaskan
Ġdika lahkan
ĠP S
ĠB ut
Ġberp usat
wajib an
ĠK ode
ensi al
Ġmak in
ĠCir ebon
Ġper lahan
Ġs olo
Ġp uc
ada si
ur y
int egrasi
ĠSh in
ker ta
ĠGeor gia
Ġbersa ing
Ġl evel
ĠR ey
egara an
Ġped ang
e am
Ä į
Ġdi mas
An th
Ã¨ re
Ġd amai
ĠS ec
ĠA las
ĠR ay
Ġbi oskop
Ġkeka lahan
Ġtran sisi
M ich
j ahan
ĠCh ar
Ġtrans misi
Ġdiny anyikan
Ġrum it
Ġp anggilan
up uk
ĠG uru
ak m
Ġber eaksi
Ġter endah
Ġdengan nya
ant ar
Ġkar et
aj ah
ĠSa udara
ban kan
Ġid eal
ater ai
ĠJo han
Ġped esaan
c er
i um
Ġ amb
Ġk ambing
Ġg ratis
ip es
ĠF at
Ġm ant
am us
ĠT en
ep al
ĠL ingk
bum i
Ġ194 1
: //
v at
en jar
ĠK eluarga
ĠM un
ih ir
Ġkam u
ĠS id
ol us
Ġr iset
c c
eb alan
ĠR oh
ĠW IB
aw e
ĠSek retaris
ĠSur ya
o tr
Ġfil suf
Ġmemper lihatkan
eb ak
ĠW ah
Ġdip egang
Ġberk at
ĠLi u
ĠSen yawa
ektor at
T anjung
en h
Ġb andar
Ġc etak
ali si
Ġsa ins
C ara
Ġt ar
tuk aran
ud in
rag on
bour ne
D ua
w ell
od y
ĠPeng adilan
V D
ic ola
isa u
Aran eus
si hkan
Ġa ut
E r
ĠD al
ber ia
Ġsem angat
s um
un ting
ĠS eo
ĠA ut
ĠH ulu
od ik
av i
Ġmis teri
Ġkak ak
Ġs ak
ĠU m
li en
de wa
s uku
Ġs taf
ĠS ha
Ġdit unjukkan
W al
s et
Ġdi artikan
Ġg o
ĠUs ai
Ġbersa udara
P roduksi
Ġr entang
ad at
ent illa
ĠYou T
tu l
eta si
oc entr
Ġdib anding
Ġs um
Ġb udak
Ġsen ang
ila ian
ari f
Ġdiam ati
I A
m ond
Ġmeng izinkan
ĠR en
Per usahaan
ill y
Sek olah
T aman
l ip
Ġangg aran
Ġdil etakkan
H ab
á º
on egoro
Ġber anggota
ut kan
ud era
Ġak tivis
Ġkem ajuan
Ġmo tif
Ġtemb ok
ik atan
bang sa
Ġpem ukiman
Ġmam alia
Ġm ain
Ġs adar
ĠP asal
uk ar
Ġla dang
eda l
c ia
Ġ #
la b
ĠS akit
ba dian
Ġmem erankan
ĠB in
ad ikal
ed es
ĠBrit ish
Ġ os
ant is
Ġpeng olahan
lak uan
gerak kan
T et
ĠN ob
ĠW ina
Ġhid rok
Pot entilla
P ros
Ġm aksud
eb as
ok h
ig er
Ġsus unan
Ġefisi en
em ahan
Ġ1 20
Ġl angka
M yc
P D
s eri
Ġg itar
Ġpeng aturan
Ġpes at
ĠPer u
ug os
yan mar
ĠKons titusi
I ni
Ġp on
ĠD aniel
ĠF e
ĠPer i
L o
al anya
ĠS on
Ġc itra
ĠPer ancis
adi on
ij an
ĠBiz antium
Ġb ir
ah ir
di c
Ġmem anggil
Ġlen sa
ambo ja
O ber
p ulau
Ġper sa
Ġa wak
Ġvari abel
C or
ĠD ev
Ġsel eksi
Ġperse tujuan
olisi s
anda kan
ĠMat aram
akam kan
g umen
ĠS ant
Ġun d
ĠSeb aliknya
eb ook
ul tur
ed era
Ġpelangg aran
Ġs int
Ġl edakan
ĠL or
Ġberp eng
Ġdih ubungkan
l op
Ġmen u
ĠG ram
ĠY a
Ġdih uni
Ġis u
c iri
Ġperm asalahan
Ġ193 9
Ġters usun
ĠSur akarta
K ek
er ba
is ang
ul aris
ĠAs osiasi
andi dat
Ġkonvensi onal
Ġd atar
Ġh ilir
Ġmenik mati
7 6
Ġs osi
Ġj agung
ul idae
ch el
Ġ3 4
Ġlint asan
R os
ya d
ari um
ga wa
Ġterb akar
uham madiyah
op ol
op ros
Ġsesu dah
Ġpep erangan
h in
ĠP asar
Ġh arta
Ġpem akaman
Ġkes adaran
Ġterp aksa
pan si
P lasm
Ġg ua
ab ut
emb us
engk apan
s umber
w ujud
Ġd ulunya
ĠL am
Ġmeny arankan
Ġw ahana
ros kop
ĠMong ol
K el
Ġmen unggu
Ġment al
I l
S ur
k ai
ada l
ga iman
ul in
bu kan
Ġperb andingan
Ġhak im
Ġpensi un
if er
Ġbuk unya
si apkan
Ġpen inggalan
ec tor
ĠO ne
lin es
Ġdij alankan
ĠMin angkabau
ĠF a
og aster
Ġberm akna
Ġp eter
ĠD C
Ġdis ampaikan
Ġsel uler
eti m
M e
ĠS isi
Ġmeng u
Ġmengh ormati
Ġdib atasi
unc ur
ĠSM P
iv ers
Ġpembang kit
ĠCl ub
Ġpam eran
C on
emb unyi
aj ang
Ġdir esmikan
Ġditinggal kan
m ir
ĠR aden
9 6
d ney
an ol
ĠS erial
el ian
Ġh eter
ac i
Ġdib antu
Ġmet al
s ol
ĠK awasan
ĠT ingkat
Ġmela m
Bi ografi
t ebr
ĠC as
omata ceae
r umah
w on
isi han
Ġhid ung
h id
â ĪĴ
il o
Ġter min
Ġr eformasi
ra gan
tan ian
ĠPro duc
ĠK op
ĠK elas
gi h
ĠH ad
os ari
ĠE fek
Ġtrans fer
a diri
ĠB ahan
Ġbert ahap
Ġop tik
ĠSumat era
Ġpenya ir
semb ahkan
Ġkin erja
C om
ĠAn th
u gian
Ġt ahanan
Ġpen angk
Ġdisi plin
D an
M i
Ġmemb entang
Ġem isi
ingg inya
g el
i jakan
Ġs irip
ga bungan
Ġc ir
st omataceae
Ġdiper gunakan
ejah ter
p el
al eri
Ġmeng ab
Ġmeng operasikan
Ġf ederal
omb ia
ĠMa ur
A C
t z
ar th
yl us
ĠSek utu
ĠRoy al
er at
up an
ro b
Ġhorm on
Ġp ita
Ġb umbu
ta ceae
Ġber alih
Mela stomataceae
S k
al y
ĠB erikut
ri badian
har ata
b entuk
li kan
Ġbentuk nya
Ġb engk
ul aritas
ĠT our
alu asi
v atif
lah i
ĠT ibet
Ġdik elilingi
ila t
Ġkali um
anc ar
ĠSh ow
Ġ193 5
9 3
ap asan
Ġseh at
Ġberm ula
Ġpari wisata
Ġkutu b
ĠPanda wa
jadwal kan
Plasm odium
7 2
v ir
Ġp us
am ik
ap tis
ĠM asa
ant ha
Ġsay uran
E d
R epublik
c y
Ġdil antik
ĠAda pun
Ġbanj ir
Ġdip anggil
res na
Ġkor onavirus
ĠMala ya
okÃ© mon
7 4
Ġt ud
ĠS ard
ut t
ot ball
Ġberh ak
Ġbas ah
gorit me
K im
K ejuaraan
O l
T T
Ù Ĳ
Ġpeng embang
ma gn
ĠW u
ĠYeh uda
ĠPer m
ow ongan
Ġre al
kl usif
in yur
Ġa di
ub an
oc la
Ġment ah
akm uran
E N
am ana
ip e
Ġberju ang
ocentr us
_ _
Ð ½
ĠM inggu
osi stem
lam asi
Ġdem okrasi
Ġmemperk irakan
D ep
Ġs intesis
tan da
an e
ĠB eng
isi ka
Ġdim akamkan
sek itar
organ isasi
ĠInstitu te
F il
P et
Ġb ara
Ġdi wak
Ġdi hancurkan
ba si
wa yat
aw asi
Ġpanjang nya
Ġsamp ah
Ġ ç
Ġmeng untungkan
Ġal jabar
iri omyza
In ggris
om ya
Ġwa wancara
ĠInd ra
P hytomyza
ur uk
ĠT et
ĠH adi
20 17
Ġkont emporer
ĠSu atu
Ġ emb
ya p
Ġke g
esi an
aka u
ĠX i
rak tik
j ung
Ã ª
Ġber angkat
ĠT ata
Ġmengaj arkan
um e
ĠA st
ĠL aks
Ġbah aya
ani um
Ġ195 4
Ġberanggota kan
9 1
z il
z abeth
Ġdi jadwalkan
ing en
Ġba ju
ĠH ot
gr up
Ġberb unga
ĠTip ulidae
L ep
Ġc el
ont ribusi
Ġkes atuan
E ur
tu lis
uk o
Ġmeny erah
ĠAd ministr
! "
el o
it anya
ĠK art
unc ulan
Ġkom ando
Y o
ĠB ea
Ġla utan
Ġr epublik
Ġa ur
ad y
Kar akter
Ġvari etas
Ġt ingkatan
im bang
ingkat kan
ejahter aan
0 1
s hi
ĠG il
Ġdis etujui
Ġhanya lah
ĠMar y
ĠSum ba
Ġh e
Ġr an
ad er
ĠQ ue
Ġsuk ar
eban on
J os
b uku
Ð µ
Ġa f
or ia
ĠK r
ĠK le
ĠC entral
ĠW at
ĠBang unan
Ġdi ukur
or g
ga ya
Ġter inspirasi
Ġdik onsumsi
ĠPer aturan
qu es
omb inasi
egr adasi
al en
Ġbesar nya
ĠCh ili
tern al
Ġkesuk sesan
op uler
ĠF ad
ĠBul garia
ĠGor ontalo
Ġmeneg askan
kan tor
um ahan
Ġj adwal
ĠT on
ĠN av
Ġpemb alap
n as
ĠI brahim
20 16
gaiman apun
T ra
ut ing
ĠD ingin
ĠH itam
ch y
Ġkomp et
Ġtu anya
Ġastr onomi
ĠH ill
ĠO ff
Ġdij uluki
Ġkola m
8 1
Ġp akar
Ġser ikat
Ġtrans aksi
Ġkr u
ĠFri ed
is olasi
Ġmen dalam
iwa yat
ĠKon f
lih atan
ĠH igh
aw ar
Ġberp utar
anc ing
Ġseg ar
wit ter
P enc
t t
Ġ19 00
ensi tas
ĠTim es
Ġ195 2
D ir
P U
ĠPro yek
ekn ologi
Ġper encanaan
Ġsen sor
ĠD ec
ĠW es
Ġas osiasi
ĠPal embang
h ard
do la
Ġseti a
Ġform asi
ĠKen ya
Ġberda mp
h en
Ï ĥ
Ġ usus
Ġmem anjang
]] .
ugos lavia
w ig
ĠD ata
ok alis
Ġkar enanya
Ġberper ang
B ang
j ect
ĠS I
Ġl ongi
St en
Ġm arkas
up aya
Ġper lawanan
ek omunikasi
Ġl o
ĠQ ing
t okoh
Ä ĥ
ĠJ ack
pa cara
Ġri wayat
untu tan
D r
L agu
N C
Ã ī
es cens
Ġj ulukan
ĠB ek
ons el
7 1
M ont
M unisipalitas
20 15
evi ew
tebr ata
B en
in u
Ġmeng isahkan
Ġun ivers
per s
tro cera
C la
C al
Ġr am
ĠW ill
br aham
3 00
ol it
Ġak urat
ig urasi
Ġperm ukiman
ĠX I
Pen er
la gi
Ġke si
Ġmeng embalikan
Ġ1 000
Ġdit olak
ungk ap
Ġver tikal
" :
ĠD asar
Ġlemb ut
Seba gian
Ġdira ih
- -
ab e
ent an
ĠCh icago
ask ar
Ġkla im
Ġinfr astruktur
9 4
S ub
oc a
ĠDis ney
Ker eta
w ich
Ġg un
Ġmemb intangi
Ġdar urat
ĠAmer ica
Bac trocera
Ġpers onel
Ġeks por
dor f
Ġperp ustakaan
Ġpa us
K ur
em asan
Ġpeng ambilan
mi grasi
el us
Ġmengh adiri
Myr taceae
ĠSej umlah
Ġ ent
at om
angan an
Ġdit arik
Ġv itamin
buh kan
Ġhab is
Ġlimb ah
U r
Ġtahun nya
end ela
tus an
R a
ĠM ang
bu an
Ġdis ukai
uti on
Ġpenj elajah
Ġtaw ar
ĠManch ester
z en
ĠT otal
ĠN ug
Ġc edera
ec ht
omp a
Ġmelakukan nya
Ġmenj elang
Ġdic etak
Ġkamp us
alif ah
tra ck
lis h
opros opa
Q u
ĠP art
ĠT al
ĠN at
op l
Ġmenyimp ulkan
deb atan
W ilayah
ar do
ol s
ĠM uk
ĠM ill
ĠJ u
ĠH or
ĠAtl antik
Ġberkel anjutan
7 3
C D
Ġmen s
ĠP os
ĠN un
ĠBat ak
seb a
Ġoper asional
ordin at
8 2
f are
Ġmeny umbang
Ġmenya jikan
Ġtik us
Ġpem er
ĠW ay
Ġdik lasifikasikan
N S
z z
Ġ á
ĠH it
Ġpem isahan
Ġsa us
od er
Ġbert entangan
Ġmat riks
Ġseg itiga
c le
en ne
Ġs umbu
Ġdi usulkan
ĠY os
% ),
V I
Ñ Ģ
Ã© e
T ur
Ġmeng ikat
Ġdik en
Ġdic ampur
mah era
B entuk
Ġr ec
ĠR us
raf t
" -
ĠP ala
eka yasa
atal yon
Ġsil inder
H er
ĠK ampung
Ġatas nya
ell us
Ġind eks
n ess
ĠH at
entu h
Ġkomun is
ĠBr ah
A lex
eb a
Ġh as
Ġc andi
ohon an
ĠArj una
ĠYouT ube
ar ingan
Ġmana jer
Ġmend eteksi
Ġint eg
Ġtet angga
Ep arki
D av
or ak
sa at
ag en
Ġs un
ela yan
untu han
Ġj urusan
emu i
ca bang
ĠGen eral
ĠS and
uk ung
ek erjakan
ĠM akanan
Ġker abat
entu m
F ungsi
ada m
ap ar
ay ati
ĠO bat
k ol
Ġdi da
Ġber encana
ant ing
ec ahan
anj ur
ov o
ĠX u
oker to
Ġter it
Ġter ancam
ap ahit
ant ri
ĠO ber
int ik
ev in
Ġdim inta
ĠMet ode
g ereja
in ea
lad esh
P C
Ġ edi
Ġ Ø§ÙĦ
Ġb adai
am ilan
ono tus
Ġmul anya
ĠKonstant in
ari us
us uk
ĠA C
utu pi
ĠPol itik
Ġprak tis
P at
Ġ um
Ġt ang
ĠR esi
Ġmeny etujui
Ġsep asang
Ġpemb uluh
est arikan
Ġte gak
ungg ulan
ĠHo use
ĠMel bourne
ecuali an
Ġpip a
la ma
Ġmem otong
Ġneut ron
en berger
ĠT ern
âĢ ľ
Ġsp ektrum
Ġkal sium
Ġisti mewa
s burg
Ġt ongk
ri um
Ġpem egang
amb ridge
ĠPer p
ni g
Pa us
K A
ĠA L
ĠJ abatan
end ang
Ġberh arga
P ur
ĠS ampai
ĠPer ubahan
Ġdom ain
b atu
il er
ĠS S
Ġmer ayakan
ĠC olum
oph orus
Ġpengan ut
Ġmengej ar
M ala
Ġke wajiban
ĠP ang
Ġr apat
ĠBand ara
p aru
8 4
M eri
k ada
ĠS he
ont al
Ġpand emi
ĠTe ori
Ġnut risi
P and
ens in
ungk us
Ġpal su
Ġarke ologi
Ġreli gi
Ġses ungguhnya
P al
Ġs m
ber al
ic ollis
bi otik
w ilayah
ĠM uhammadiyah
Ġr up
ĠR at
f il
Ġh ektar
form at
Ġlam bung
0 5
Ġse ter
ĠK erja
os an
Ġpela tih
Ġpers yaratan
Ġkurang nya
Ġpemerintahan nya
Ġam ino
Ag ama
Ġber do
ĠP ort
ĠM ing
ĠM yanmar
ĠB ell
ĠAp abila
ĠMos k
T el
o don
Ġt ambang
ĠK resna
Ġpeng awasan
Ġrumah nya
Ġmend arat
8 3
Ä ±
ik s
Ġg oreng
ula tan
Ġdis erang
mi um
dis ebut
pen y
ĠKed uanya
itra an
Ġoksida si
r est
Ġdi izinkan
Ġter atur
wa an
Ġ é
Ġf rom
Ġmeny anyikan
Ġmel uas
Ġek onom
Ġb aterai
Ġper tukaran
ti ca
ob ia
ĠBa gi
F ran
H e
k ap
k omp
l ek
si h
Ġmeng angkut
ast il
Ġ193 3
ĠKec il
Ġdi adaptasi
am o
ĠS amp
Ġman diri
Ġpasukan nya
kan dung
ĠK arang
M ac
T M
b intang
Ġs asaran
emp urn
Ġpol it
N o
Ġd omba
Ġter atas
Ġpem asaran
Ġmel anggar
kin s
ekerja an
Ġ0 3
Ġseg men
hanc uran
Ġberd arah
S im
ĠT oy
ep ungan
ĠOb enberger
i di
p ing
s ub
Ġk unjungan
ĠG ad
Ġdip ahami
Ġ5 5
Ġdin ilai
Ġmemas ak
Ġsal ju
ĠZh ang
U s
Ġs ilang
ĠA ku
ĠP ahlawan
Ġr adikal
ĠL embah
and ard
Ġwilayah nya
if t
Ġpern apasan
H ukum
Ġp lay
Ġg ur
Ġid entik
t al
Ġterb unuh
Musi m
ĠMic rosoft
Ġpak et
Ġdimas ak
ak er
ĠS tor
ĠH us
ĠG as
atur al
Ġhasil nya
Ġbala pan
Ġ ×
ĠP esta
Ġfil osof
ens us
Ġ195 1
Ġso al
Ġbern ilai
ĠY ugoslavia
ĠBer bagai
ĠPela buhan
K ol
Ù Ĵ
Ġm ic
ing ati
ĠP la
et on
Ġpeng iriman
ĠCh en
Ġbert ahun
all y
Ġcur ah
C op
ĠS ul
Ġin siden
ĠG uang
ati ve
ĠYo ung
Ġwisata wan
Da erah
M al
M im
ĠM obil
ĠC ons
Ġa er
ma c
yek h
Ġqu ad
I r
t os
Ġkon ferensi
ĠSl ov
ĠK utu
Ġdiba ca
yp e
risten an
ĠEm pat
S etiap
e u
Ġd or
Ġdip elajari
Ġkel enjar
Ġmengan cam
Ġcuc u
N eph
T B
j aman
Ġba b
ĠG lobal
int is
Ġsem ula
Ã¼ n
I t
ĠT ari
st on
ka u
ĠTer minal
Ġ195 3
Ġunivers al
K ont
¿ ½
Ġmeny ebarkan
Ġpemba ca
ĠKam ila
T om
i x
Ġber dirinya
Ġmen utupi
duk tor
Ġberk ontribusi
Ġpeny el
Ġ193 8
Ġbak al
Ġo ut
Ġkand ung
Ġm atang
Ġp angkalan
Ġb akat
ep er
in aan
ur ia
ĠM id
ĠN y
ĠU U
Ġsen si
Ġmengh ambat
Ġsul fat
ya i
ri f
Ġsek utu
Ġfungsi onal
elompok kan
iring i
umba i
Î »
it es
ĠI k
urn alis
ye ong
ĠAbdul lah
M us
Ġber ak
gr aman
uny ikan
A ustr
Ġ4 2
ks on
Ġjumlah nya
ap e
Ġr adar
ĠL and
Ġmela ju
uj ukan
Ġmengh ilang
Ġkem an
ĠAs ing
ominasi kan
r ol
Ġdih apus
Ġs ter
ĠS C
ab umi
re di
ĠS tu
Ġc al
ĠF l
ot am
In s
B als
K ed
à ¥
in feksi
em ah
Ġla kukan
Ġw artawan
Ġhar inya
ĠSard inia
S ej
ĠCh o
osis inya
ĠKol ombia
orc adion
ĠS eluruh
Ġber api
ĠK A
Ġl isensi
Ġn antinya
unc t
adi paten
asti an
ĠAz erba
ingu istik
T rich
ï ¿½
ĠS ony
ĠK ak
ĠK amboja
ent ak
dah ul
âĢĿ ,
C a
ĠS te
Ġmeng amati
Ġ193 6
amin aceae
eim bangan
Ġp aram
di p
Ġmeng eksp
om on
gun ya
S ir
f eld
ro und
ĠL ebanon
Ġangg otanya
onom ian
Ġ25 0
ĠMaj apahit
rot oma
Ġresep tor
Bals aminaceae
k ons
Ġp seudo
am ida
ĠS eg
Ġke lak
angka u
ĠAng k
Ġmeng apa
Ġterl uka
Ġ6 00
Ġpan en
Ġminim al
' t
ĠC ast
ad ron
ĠO pen
Ġdis erahkan
Ġseter usnya
M uhammad
ĠT echn
Kar ya
Ġmenjal in
ĠAlb ania
A mar
B rit
r ang
er as
Ġs w
Ġmen andakan
ep i
ĠPr as
ĠKu il
Ġreg uler
ĠBol lywood
ĠAyah nya
Ġd ec
Ġan alog
ĠMela lui
ĠRadi o
ĠA lat
ĠD uta
ĠC EO
ĠH ewan
ina e
Ġket entuan
ĠEx p
d istrik
it el
ĠK ul
ĠN amanya
Ġdirek am
P impinan
al d
ĠK la
ul angan
Ġpeng ujian
Ġdis elesaikan
ĠDa un
rah at
ĠLomb ok
w ari
Ġr agam
Ġc antik
20 18
Ġdib eli
adi un
Ġberd ekatan
N or
Ġp ort
Ġin c
ĠJ im
th er
Ġpemba yaran
ĠHawa ii
O R
o use
t d
Ġm ad
ja uan
oleh an
Ġpeng eb
osi r
min kan
Ġis otop
ah abatan
ant on
ĠW eb
Ġakadem ik
Ġ est
ĠB ir
ĠB ata
ĠC op
Ġterl epas
Ġman di
L ap
M D
m bang
t inggi
ant ho
B l
Ġ oc
ya kan
ĠK isah
Ġpro ton
ern aan
ĠMong olia
H el
H id
Ġmem pertimbangkan
ok s
ĠG h
Ġmel ingk
pen nis
ĠSer v
Ġmengaku isisi
hel m
K arang
si lah
ĠS olo
ĠV ik
ola kan
oph y
Ġre aktor
Ġco unty
ĠTip e
ĠChampions hip
ĠCek o
Ġgand um
ul f
Ġl ihat
Ġc angk
eli dikan
ega si
Ġorbit al
ĠMad rid
Ġtemb akan
ĠSoek arno
N ational
l un
Ġmen ampung
Ġc at
Ġpeng lihatan
orm at
tern us
ĠKar l
ema at
y et
um as
Ġmen ilai
Ġpeng as
ord an
Ġken aikan
Ġrep roduksi
Ġpersi apan
Ġpeter n
ĠAzerba ijan
Ġf an
ĠN ar
ĠKe uangan
Ġkont ribusi
ÃŃ a
Ġber acun
ĠL ife
Ġhubungan nya
Sy bra
S emua
Ġs ingkatan
Ġr utin
ok e
Ġsej ati
ĠBos nia
Ġlip at
j alan
l isi
Ġp anglima
Ġk od
ti me
ĠJ en
ĠKat edral
S tar
Ï Ģ
Ġd osis
si li
ĠLe on
Ġkek h
w ahan
Ġ ed
Ġb an
ĠP un
Ġmeng elilingi
Ġker ugian
Ġro bot
Ġpan ah
H ak
Ġd ay
en us
ak um
Ġf ir
Ġr acun
id us
Ġv okalis
ob us
Ġhid ro
Ġsir kuit
ribut or
H an
eb es
ĠR ena
ab et
Ġro man
Musi k
Band ara
B at
Ġk af
Ġdi awali
ĠJ ing
Ġw as
Ġberb ahan
R iwayat
c or
r ek
ĠS is
Ġber tar
ul ian
ĠL ar
Ġhi per
Ġmew ah
Ġdi ja
Ġla ga
ebut kan
Ġdih entikan
Ġpener us
Pro gram
ĠTa urat
Ġdidapat kan
U H
W illiam
Ġ iman
Ġp ist
em ikian
do t
Ġpen ilaian
af sir
Ġpol imer
Ġmin oritas
eni um
Ġband ung
Ġsur ga
Ġdiaj ukan
x in
ar ungan
as us
Ġak ting
Ġar gumen
ĠTur k
Ġmor f
Ġaudi o
" "
as ta
ĠR y
Ġsah abat
inter aksi
q i
z ine
si sa
ĠW ir
Ġim un
ĠVir gin
Ġ4 4
Ġmu ara
Ġalum inium
S T
k ala
in es
Ġs arang
Ġp ublikasi
Ġt antangan
Ġser u
las h
anth rax
Ġspir itual
S il
e ing
ĠM andar
ĠB rown
Ġmer deka
ĠPol isi
Ek onomi
ĠNAS A
A mer
L A
Ã ¥
Ġ entitas
Ġ3 9
und track
Ġterp enting
Ġdin ominasikan
B ill
L ami
ä ¸
asa annya
iti um
Neph rotoma
f e
Ġp isau
Ġdi dominasi
Ġkl inis
Ġmeningkat nya
Ġtr uk
E D
Ġk andidat
ĠA ma
ter utama
ĠC inta
Ġmemper panjang
ĠMas sa
Ġsemen jak
eng arkan
Ġpemb uka
ĠKu ala
ĠEli zabeth
I k
si an
Ġh ir
ĠO x
Ġdik umpulkan
ĠSch l
ĠSeo ul
m ud
ĠSela t
Ġdib esarkan
ĠPro duksi
Ġdil indungi
Ġins inyur
Ġmon arki
ĠTra disi
ĠÅ Į
M art
t un
Ġter gabung
Ġmeng ur
ot ensi
esk op
fa atan
E fek
M C
si han
ik ar
Ġr empah
ĠL eg
ĠF ar
ĠSek arang
Ġper filman
Ġf a
emb ung
Ġdiper bolehkan
ĠAsi an
E mp
s ons
ya itu
ab le
og e
Ġdip ublikasikan
enc y
fr ed
Ġ193 7
Ġme yakini
Ġkrit eria
Ġper isai
Ġr en
ena zah
bi asanya
ĠMet ropolitan
Ġnasi b
ek al
tr y
D o
P es
T C
Ġmem ecahkan
Ġmeng obati
apai an
ĠBur ung
Ġmen yak
ĠC os
A li
Ġk g
si c
ir is
os fer
rig ht
U N
b ro
ĠK us
Ġj uru
op le
ch th
ĠMes in
Ġme yakin
Ġtengg elam
S w
Ġ ...
ĠB idang
Ġpend atang
Ġkak ek
J epang
ik kan
ba ck
Ġdik onfirmasi
ĠKom andan
Ġpember ontak
u in
Ġper aih
ĠL um
ay lor
Ġlanda san
d ua
Ġt ampilan
ut s
ĠP ac
Ġh amil
ĠIn formasi
yph antes
Ġpenerbit an
W e
ik opter
ĠW aktu
ĠV II
Ġcac ing
ekutu an
Ġp isang
Ġk ari
ĠK elurahan
ĠB ug
ĠPer h
Ġant rop
ĠPro duk
Ġku ant
Ġprof esor
dol f
Ġekstr em
Ġasi sten
ĠSans kerta
Ġp onsel
ĠP res
ĠB ig
Ġas ap
etap an
imp ah
h ati
p al
Ġs or
Ġj ati
ĠH ubungan
ĠBang ladesh
seb elum
Sup er
Ġmenemp uh
D efinisi
à ¦
Ġmer ancang
Ġg luk
ĠH idup
li batan
ĠTerb uka
k itan
it ia
uk ota
ĠJ r
Ġsu asana
Ġpel arut
Ġberla yar
am mad
Ġse per
tu ra
is p
Ġber man
ot ongan
Ġpert arungan
tur kan
Ġide ologi
el ektr
Ġmem f
Ġbers atu
av e
Ġketi da
entr is
Ġmus lim
Ġmala ikat
endek iawan
ĠFrancis co
Ġeksperim en
D on
S at
h um
p op
w er
an ja
Ġmeny us
Ġkar angan
Ġker jasama
Is lam
Ġefisi ensi
p lay
Ġk ara
ĠD or
rop h
ĠPr inc
s erial
ula an
ip s
ĠY am
Ġmel ekat
ilis an
Ġpenc ernaan
ender ungan
dok umen
Ġmaksi mal
Ġdiwak ili
b ox
ĠI S
ep an
ĠN an
ch an
Ġan eh
ton e
Ġmon umen
Ġmencer minkan
Ġ uk
Ġb und
Ġber interaksi
ĠG el
ist is
agn osis
A ku
G M
h ab
Ġh ebat
Ġv i
ĠZ ona
s em
Ġp H
Ġb u
ya ir
ter al
Ġdis esuaikan
Ġasal nya
Ġop tim
Lam iaceae
Ġpengelola an
b l
ĠS ari
ĠB alai
ela si
ic i
ist ri
Ġberta juk
Ġt anggapan
ĠT ir
Ġf on
ali kan
ona x
ĠLib ya
y ung
ar on
ĠJ ung
ĠH asan
Ġberh arap
Ġro mb
ĠOs aka
g ant
olong kan
Ġkep ribadian
Ġkes eimbangan
Lami ales
v y
ori z
? "
Ġp aksa
Ġter asa
ĠD ag
ain s
Al bum
rip t
Ġsis anya
Ġkant ong
I C
M u
t eks
Ġm uk
Ġmen dominasi
Ġan al
Ġre zim
Kep ala
ĠPeri ode
Ġm itra
it ro
ĠJ un
ĠL td
ell y
ograf er
ĠPol ri
Ġhi er
Ġkeber hasilan
ĠSy dney
Ġjangka uan
efisi en
4 00
B M
P eri
al el
Ġr awa
ih ara
tr e
amb ung
end ungan
ĠV illa
Ġpenangk apan
v ey
en ya
Ġj ejak
ĠB atang
atu hkan
Ġsed emikian
Ġbert anya
ĠUn it
Ġkot anya
Ġliter atur
R eaksi
ĠA braham
ĠK in
ĠK eber
ĠE do
ĠPer tanian
Ġberp enduduk
war sa
t ung
Ġs ta
ĠS ay
Ġn elayan
ub uran
oph ron
ĠPi die
un ani
ĠB ob
ĠH ok
Ġtel uk
Ġ192 8
Ġsur vei
hol m
ulih kan
ĠFac ebook
ĠS qu
Ġr er
Ġn ot
ĠW arna
ola borasi
b is
Ġd olar
Ġh adapan
Ġ6 5
ĠMen engah
Ġsin ga
ĠStr eet
ĠEst onia
v ar
ĠB oh
ĠD im
ĠPer maisuri
ust aka
ĠHal mahera
L ee
ĠPro t
Ġdem okrat
da e
urn ian
ĠBo eing
Ġg ambaran
ĠR id
Ġ19 18
ei ch
ill es
ĠPem ain
Ġpar oki
Ġhip otesis
b ut
da d
ra w
gan egaraan
uc ut
Ġeks ternal
untu h
cel ona
C ol
O perasi
Ġj azz
ĠM and
ĠT witter
Ġdiba wakan
Ġim igran
Ġtik et
besar an
ĠSip rus
Ġm ari
Ġt v
ari to
ĠG ib
ag aman
Ġmusik al
Ġst atistik
Ġmin at
Pa ul
P ap
P end
z at
Ġt anjung
int o
Ġberb uru
Ġseluruh nya
Ġastr onom
Ġkonsi sten
Ġpark ir
m id
ir at
emb ala
Ġset inggi
Ġna ungan
Ġ lah
si st
il um
ĠS ut
ĠK ang
ĠK uta
op o
Ġge ologi
Ġmetabol isme
ti sida
Ġ19 12
Ġpro tes
Ġmel edak
Ġdip otong
ĠPeng embangan
ahli an
c t
j un
ar uan
Ġb ubuk
yang nya
Ġkes amaan
Ġro m
ega k
F ranc
z uki
Ġg l
if orm
ĠKe jadian
ex t
Ġeks klusif
resi kan
ri ck
usi aan
omp osisi
Per janjian
yll idaceae
Ġlar angan
Ġnet ral
g raf
Ġper debatan
Ġj endela
Ġh y
Ġn af
id iki
Ġpeng gabungan
Ġdit ingkatkan
ĠIs landia
Ġder et
Ġarsit ek
Met ode
K itab
ar atan
Ġin tr
atu han
Ġsep utar
Ġperk embang
Ġmenulis kan
Ġ192 4
Ġmenyak sikan
0 2
ĠS tan
ap t
Ġper maisuri
Ġa u
Ġdib ebaskan
Ġ4 3
adi r
ĠUni on
Ġrump un
ĠShang hai
ĠM isi
ĠB ala
ĠI kan
Ġmer asakan
Ġf rag
ong g
Ġc oba
pa ui
Ġpener apan
ĠWis nu
- "
ĠS ik
ĠM end
Ġsela ku
Ġpend eta
Ġmemba wakan
ĠIb nu
l ebih
ĠE mas
don an
ĠCh ang
Ġtel ekomunikasi
ĠJuni or
G B
O M
O b
P K
Ġp aham
Ġ19 13
ob atkan
Ġketi mbang
Ġ192 9
ĠTan aman
R A
g h
Ġp ic
ĠS ama
Ġpener imaan
K eter
c ontoh
Ġk apan
ĠP C
ĠD j
ri ve
ĠAr ist
ĠAl bert
Ġdem am
Ġpin jaman
Ġpemro graman
d ata
Ġt ingginya
ili un
ĠCh ris
Ġterakhir nya
Ġmenak lukkan
omenda sikan
R om
a ga
Ġmem eluk
Ġdip aksa
Al l
199 9
ĠNet work
ĠBrun ei
ing er
Ġmem uji
ĠB engk
os er
ĠY an
Ġal ur
Ġkom odi
ow o
ĠFilm fare
ĠNew s
Ġbang un
Ġbus ana
Amar yllidaceae
Ġt untutan
Ġmem ori
ung utan
Ġdit emp
mm atius
eb o
ĠM r
Ġh ambatan
Ġf ac
Ġpet unjuk
Ġken yataan
Ġny eri
N g
g inya
Ġp art
ep ung
ĠJ ambi
Ġberk omunikasi
Ġmemper hatikan
Ġek osistem
Ġre alitas
red iksi
Ġputr inya
O s
ĠT umbuhan
ĠL ew
ĠG ame
ĠW angsa
emen ang
Ġgraf is
Ġflu or
O H
s ul
Ä ĵ
Ġm odifikasi
Ġdi alami
bang k
ĠG an
ĠG old
li an
Ġ4 1
Ġil egal
ĠKonstantin opel
s esi
ĠI d
ĠC el
Ġba u
Ġsek adar
Ġpenggunaan nya
ĠAd v
ĠSc ott
Ro bert
u ela
Ġb ox
Ġdi atas
al ar
Ġpen ampil
ĠAn n
ic ornis
Ġmemb ant
Ġdiken ali
F or
Ġ eksi
Ġt ump
Ġmeng usir
per usahaan
ĠG od
Ġtidak lah
ci al
ĠSen at
Ñ ģ
ĠP and
ĠH ay
ons ter
Ġked elapan
anggap i
Ġhi u
ĠCar ol
Ġkre dit
K an
Ġsa wah
ĠW arisan
evel op
ĠPes awat
antum kan
u ba
at ed
Ġla k
ani f
Ġpenting nya
Ġwa bah
itt le
s ung
ĠM ilan
ul osa
ok imia
oc o
anas kan
Ġg urun
Ġsep atu
Ġsub ur
K eluarga
o ter
Ġ utuh
ĠS it
ĠS ig
Ġin ci
ĠF inal
bur y
ES CO
Ġpres tasi
lor asi
Ġko ordinat
ĠAnd roid
. âĢĿ
D er
K isah
T o
d ut
w en
Ġ angkat
en za
es ti
Ġmeng undang
ĠN ot
op atra
ĠW ood
und uran
engg am
Ġhi asan
ision aris
Ġtud uhan
Ġbertar ung
y la
ro ma
ĠN ations
Ġpem akaian
las s
An ak
Ġperm ulaan
Ġ193 2
J erman
S A
a usan
n os
Ġk ud
ĠH aji
Ġkes ejahteraan
Ġ193 1
ĠVen ez
Ġplas ma
Ġbon eka
ro h
ĠC up
ĠC all
ĠC orn
Ġc i
ma chus
ĠY uan
anth on
lig ht
ĠD rama
ĠR em
Ġletak nya
0 4
C amp
H ip
g ung
Ġber kantor
ĠB unga
ro st
Ġn an
ĠF ederal
Ġmet ropolitan
ungk apan
Ġint elek
Ġketer angan
H en
o z
il eri
Ġber upaya
et e
end um
erik sa
ĠPr usia
Ġeks pedisi
ĠSt ock
ĠAk tris
esiden an
Ġr asional
Ġkes embilan
Ġdi trans
ĠS ala
ĠB re
Ġmeng inginkan
ĠC re
Ġmenc uri
ug asan
ulis an
In tern
Ġoff ice
A z
y er
ĠS af
ĠP L
ĠD ah
ĠD VD
ĠL en
ĠL ayanan
ĠR NA
Ġterk ecil
Ġdipen uhi
W alaupun
Ġmen emui
Ġdik at
Ġpes antren
anta ian
Ġkrom osom
f inal
ĠS as
Ġpel uang
n ot
al ung
id s
ĠTh or
emi er
Ġdokumen ter
Ġline ar
p res
Ġp ala
ĠI A
ĠT am
Ġmas ak
ik on
ĠB uah
ul ihan
Ġg or
ĠC r
f ungsi
Ġp refektur
Ġb oy
ĠS alib
ĠK ot
ĠN epal
id ik
oh or
he v
eph en
Ġ192 7
C all
et ro
Ġf arm
av orit
C iri
J umlah
in ar
aman nya
Ġ8 00
Pem erintahan
Ġpej uang
j alanan
Ġs tar
Ġb elah
ur ian
Ġg r
Ġmemb ela
ungg uh
m asa
Î ¼
ĠM ata
ĠT emp
angk ai
ĠMar x
ĠUmum nya
V ersi
t ah
eng ka
ĠK ini
ĠL evi
ons truksi
Ġpela jar
D A
T empat
Ġ om
si ran
un us
ĠS taf
ok ia
Ġdiper luas
In ter
Ġtah apan
eles aian
ĠFried rich
I P
r akan
s atu
t ak
in di
Ġp ati
ĠMar c
isasi kan
Ġpel ukis
ganti an
Ġet anol
ĠKons ep
Ġkan al
ĠKutu b
Ġk entang
is ma
ĠA udi
Ġr entan
ĠR an
and anya
ĠG on
oh id
Ġterb alik
ÃŃ n
B ank
M em
u er
em ani
Ġh antu
li x
uc e
ĠDin as
ĠMark us
Ġhor or
K ap
n en
Ġs indrom
Ġke w
Ġr untuh
Ġsek uel
199 8
Ġkola borasi
e en
Ġk lien
es ak
asi m
enc an
ĠNug ini
r ep
en es
Ġper umahan
Ġ1 10
Ġv eg
Ġsetelah nya
Ġmemper siapkan
Ġmit os
Perk embangan
Ġmeyakin kan
Ġk udus
ĠT unggal
bu ahan
ikan an
Ġ6 4
Ġro tasi
land s
0 7
V al
k em
p art
Ġke di
ul ik
Ġket ak
Ġmengaj ak
Ġs ib
Ġdi ucapkan
or angan
ĠS ai
ong s
gu ay
ĠCh ristian
Ġind ra
0 9
l arasi
ĠS eti
Ġv aksin
Ġ4 7
ĠDem ikian
up ang
Ġkeh amilan
Ġmener uskan
ji ang
sit ektur
P enduduk
Ġb enang
Ġb asket
ol itik
Ġj uri
Ġmem atikan
Ġl isan
Ġn av
op las
ed ikasikan
uj ur
ev an
Ġdic eritakan
Ġkor an
Ġdok trin
Ġberd ua
Ġnit rat
ft arkan
Bur ung
Ġberman faat
it ri
ĠO per
oc eph
Ch arles
ĠS or
ih al
20 24
ind ikasikan
ĠKu ba
c ur
e um
Ġj akarta
asi km
ist ribusi
oph ila
Ġjalan an
po ol
U p
Ġ ungu
ak apan
ik ip
it ing
Ġl ari
Ġmeng erjakan
ri ed
P l
si tas
ĠM ek
ĠJ l
ĠH ist
ĠW an
uni dia
ĠKong o
pro duk
b ilitas
c olor
k os
ĠS aya
is ha
Ġf inan
Ġa ustr
Ġdib akar
An t
L okasi
Ġper anan
et su
Ġn ew
esar an
Ġmemb akar
Ġberk ualitas
oc al
Ġpenc iptaan
Ġhi as
alih an
Ġmedi um
ĠAleks ander
% )
and uk
ab dian
Ġ19 19
ĠO li
Ġman apun
ilis asi
Ġlingk up
B N
K emudian
ĠK end
ĠN ord
ĠKen n
ĠS ev
Ġmen ari
ĠIn dian
Ġak ut
ni at
engk ung
ĠAnt ara
P op
b ong
Ġse si
ĠP ec
Ġser agam
las t
âĢ ¢
Ġmemp ro
elih araan
ĠLingk ungan
Ġt ent
Ġber macam
ĠP anc
Ġpeng urangan
Ġ4 9
pa u
Ġk lan
Ġt it
ya s
it aris
Ġh at
Ġh it
Ġmeng awasi
ĠTim e
Ġdil epaskan
tim bangan
ĠAnd rew
ĠBata via
P L
ĠN orm
ch ing
0 3
Ġk urun
ĠS K
it men
Ġ19 14
os um
Ġmeny atukan
Ġas uransi
efer endum
ĠStr at
Ġkrim inal
E A
Ġd etail
asi t
ĠD KI
Ġpen anganan
ant un
Ġsa wit
ac ing
emp ar
mp angan
za ir
d esa
v itas
ar us
Ġ5 2
Ġhilang nya
Se orang
ĠPerb edaan
on akan
il iter
ak kan
Ġin ovasi
ĠB angk
ra v
op ak
ot s
Ġpeng ungsi
ĠPr ak
ht t
Komp osisi
F r
h itung
or ks
Ġf leksi
op or
os oma
Ġ5 1
Ġge ografi
organ isme
Ġend emik
obot s
ĠGol den
C ha
ol is
ĠT ad
ĠN atal
ĠJ umat
Ġc ek
ĠH onor
ĠY aman
Ġmemb alas
Ġkel ebihan
ĠZ i
Ġro hani
Ġpers el
Ġmol ek
xy opes
wajib kan
asikm alaya
ter ania
ot es
Ġmeny emb
Ġpop ularitas
Ġsul ung
ĠBab ak
ĠMana jemen
ĠUN ESCO
Ġs ultan
Ġter infeksi
ĠP ost
ek olah
ĠPer si
alih kan
Ġpengendali an
0 6
g l
Ġd ini
er dasan
ĠB ac
Ġgen etika
Ġmember sihkan
ĠX in
tag onis
B I
an ek
Ġj urnalis
Ġa z
Ġc elah
amp a
ĠGu ild
anggota an
Ġelektro magn
L u
h op
v ania
ut ang
Ġc endekiawan
ĠG ard
Ġdim uat
yl um
Ġdih adap
Ġketer ampilan
itur gi
g et
s ela
en di
Ġdi gabungkan
os eksual
Ġmemb iarkan
Ã¶ r
Ġpul uhan
ĠTang erang
ocla dius
Ï ħ
Ġv ulkan
Ġ4 6
Ġdid eskripsikan
Anth rax
) ".
R S
Ġs andi
ĠP anglima
Ġl es
ri x
ĠC y
usi k
Ø§ Ø
B uku
Ã ¦
Ġ è
up i
Ġh am
ir ingan
ch ne
Ġdis ana
Ġal goritme
ow i
ell es
ĠPem ilu
Ġperp indahan
Ġromb ongan
f al
s b
ada annya
ĠP tol
Ġ20 21
ĠG ran
re as
ard inal
ĠKaz akh
is kin
ĠB udi
Ġr ongga
Ġpen ugasan
op oda
Ġsisi k
ĠSam osir
Ġpeman asan
Ġnor ma
b ulan
em buhkan
Ġv ol
aba i
Ġeks pansi
ĠPers atuan
Ġmengk ritik
ĠKem erdekaan
z eg
Ù ĩ
Ġb eta
ak tur
Ġmem in
Ġpen utur
ĠJ iang
and y
ĠF ern
Ġdih ukum
ĠKom ando
Pand emi
an aman
er ator
ĠR u
ĠH ow
Ġpeny elidikan
Ġmener us
Ġbin er
Ba gian
uruh an
ras ah
s asi
ĠA D
ĠB any
Ġpeng amat
if era
Ġmew ujud
Ġlamp ung
0 8
I b
P e
Ġb ensin
Ġber niat
el in
Ġj et
Ġor n
ĠG ood
Ġte ologi
Ġ192 5
esu ai
Ġkre atif
tad t
op ocera
ĠE thi
enda l
ly tus
Ġdid istribusikan
Ġsal inan
ikip edia
Ġdi dalam
aya k
Ġdib uktikan
ment al
o ti
ĠW arn
Ġak al
engk ap
ĠKons er
ĠTr in
F I
Ġmen embus
Ġmem elihara
ĠD ew
Ġla was
ĠAn na
ĠAr s
ĠPer istiwa
her e
daya kan
Ġcer das
Ġdisk usi
Ġsukar ela
D ip
ari ta
di o
ĠPer dagangan
of il
Ġdib atalkan
ell er
antu l
ĠBa ik
pek tif
Ab dul
Ġori entasi
J ean
P ersi
Ġg anti
Ġc an
ĠPer l
ĠMak am
bangk itkan
anek arag
6 00
R ich
Ġd ef
eng ku
Ġspesi men
ĠSing h
egor ikan
Ġmelam paui
Ġke unggulan
Ġh ama
int endo
dah kan
Ġkomp utasi
Ġmend eskripsikan
Ġpad uan
Ġperp anjangan
ĠStudi os
ĠFo otball
f am
Ġd ebu
it at
ĠN ight
Ġa ward
ĠJ ab
Ġkec enderungan
ug e
gen re
ĠBer beda
Ġpengh ormatan
Ġkek asih
ari si
Ġber edar
ĠP lan
ĠM it
ul ung
Ġberp otensi
ĠPen yakit
Ġpers ahabatan
Ġseber ang
y ono
á ¸
ari ah
Ġj angan
im o
ĠN ick
ĠG us
Ġker bau
me dia
Per b
An ti
Ġkol ektif
Ġdi di
ĠK ala
Ġdit ahan
um o
Ġl an
Ġpen al
ĠRom an
ĠRo ad
kar bon
ĠKon vensi
eal th
Ġkonf igurasi
g aris
g askar
w arkan
ĠAr k
ĠW on
od us
Ġ192 2
oci al
ĠHit ler
un it
Ġber ani
Ġper olehan
wa ys
ĠH utan
ot ten
aw ak
ĠCh am
ens or
Ġkela inan
Ġminim um
ĠChan nel
a e
Ġl inguistik
ĠIn t
20 20
Ġbers angkutan
Ġkul tur
F estival
G r
g at
Ġh elium
ĠD ream
ĠH im
Ġsem ak
Ġpsik ologis
ĠBra zil
S mp
Ġdi ferensi
ĠP ep
ja y
Ġw ew
Ġpeng arang
ill us
Ġdial og
vers al
M ark
Ð ²
Ġter kandung
Ġj epang
lat ar
unj ang
yl la
ĠAd at
Ġdiak ses
o ut
ĠD h
ĠT itan
Ġf ul
ika wa
ĠPer empuan
ingk ali
ĠBur ma
ĠHak im
c at
Ġs tu
Ġdi ha
ĠP terolophia
ĠH ai
ĠG ay
Ġkep alanya
Ġmemb ebaskan
yata annya
Ġpri bumi
irip an
ophron ica
en er
eng gal
ĠP re
ia i
ĠC erita
Ġpem andangan
ĠBer bahasa
uta an
iaya an
omba an
Ġhel ikopter
Ġtongk at
T ujuan
e ed
ĠS atur
om pat
ĠN ic
ĠAr ya
ib ur
Ġdig olongkan
ĠMa ch
Ġketer libatan
E M
i tasi
Ġkep olisian
Ġpas okan
enc i
ĠZ hou
Ġberh adapan
uncul kan
egi atan
Ġik on
ĠSlov enia
C omp
Ġs alib
ĠP us
Ġj an
ĠB lu
ĠL es
ĠR ese
Per mainan
Ġkonstan ta
J R
j ara
u ber
un dian
ĠJ embatan
men erus
Ġmul ia
Ġberc erita
ĠNi as
ĠRese arch
Ġp anc
Ġh um
ung sinya
ĠL og
Ġkep onakan
gan istan
Ġdem onstr
Ġkab ur
wor ejo
Ġkeman usiaan
M ad
y eksi
Ġdi tim
es th
ĠP okÃ©mon
Ġg es
ĠF ungsi
ĠSp ace
Ġot onom
uga an
ĠSen in
ĠMad ura
ĠPet rus
Ġintelek tual
h ur
Ġd endam
ĠS yekh
Ġter mal
ĠK ita
Ġpem u
uj uh
lat en
if inal
ĠMod ern
Dav id
alung un
y le
Ġ ump
Ġd osen
ida si
ĠIs mail
Ġi dola
Ġperlu asan
Ġterd engar
Ġus ai
ĠColum bia
Ġs and
ĠP askah
Ġh em
Ġl ini
ri er
ĠIn di
Ġsul f
Ġrok ok
Ġtermin us
on ta
ga p
gi e
ĠT egal
Ġya kin
Ġid en
ĠStudi o
ĠBab il
M ak
b atas
q ui
ĠI X
ja zair
id in
ĠIn f
ĠG ab
Ġpeng gerak
ĠBar celona
alang i
ĠDr s
C yr
c es
m ol
in ess
Ġmeng emb
asa warsa
Ġpeng acara
sa u
hi asan
Ġmengan ut
Ġsosial is
ĠYak ub
evelop ment
k ali
Ġmer es
Ġpela yan
ĠKep olisian
ĠMah kota
ĠSeri es
asci ata
G i
Ġs aksi
Ġb re
is ch
Ġr ed
ĠG am
Ġmeny usul
Ġw ell
itt ata
ĠMay or
ĠSosial is
Ġperek onomian
Ġpolit isi
K S
P or
S ed
f abet
p isi
in ir
ala ba
esi k
mp ulan
Ġth at
deb atkan
ĠFad il
ĠEthi opia
h usus
p et
ĠS astra
ĠB angka
ĠJ ay
ĠH IV
ad ukan
ov ina
ell ow
Ġwa yang
ĠVen esia
Ġdibu ang
Ġmemberit ahu
seba gai
Ġdi ag
Ġpen emu
ĠH ilir
elah iran
int ar
oc ar
ĠZ eus
Ġny aman
B atu
R ep
Ġ etika
ĠS ipil
Ġj enazah
Ġl it
Ã¨ res
ĠVen us
ĠMedi terania
Ġpembu angan
odin amika
s yah
Ġke gunaan
ri on
Ġr ekayasa
uf aktur
Ġac ak
Ġkontr as
Ġmen anam
ti i
ĠB ani
Ġdik erjakan
ĠY osh
Ġkelu aran
ĠSt ate
Ġlam anya
Ġtrans formasi
ĠSo eh
ĠSam udera
Ġcamp ur
oloph onotus
Ġpi ala
zh ab
K ab
T iga
Ġp ujian
ĠD harma
ep asan
Ġmeny esuaikan
Ġsep akat
res olusi
Or ganisasi
ĠPend ukung
Ġpeda laman
L ou
Ġt ok
Ġdi esel
ĠW ei
lam bat
Ġek ologi
ord ania
Ġpenc egahan
musi m
ĠBug is
C ap
K ali
ur ung
ĠT epat
ĠR eal
os intesis
ĠE c
ov ie
Ġpers atuan
ĠKap ten
Ġungg ulan
Amer ican
J ames
y ama
Î ·
Ġs ap
at ul
Ġpeng ecualian
Ġdih ormati
Ġkab inet
Su atu
Ġp arti
un ner
Ġn er
Ġpen jual
ĠR od
ĠO m
enang i
ĠSab tu
Ġpinggi r
B ah
K amp
k ul
p asar
y in
Ġdi in
ĠC in
ab harata
ent ase
Ġdit andatangani
ĠIs ti
Ġsay ur
anekarag aman
I st
L iriomyza
Ġm adu
un k
ĠB uruh
ĠD it
Ġf igur
ki e
Ġdid esain
Ġmenemp el
Ġberdamp ak
Bill board
S C
n ikahan
ang gih
ĠH art
ab ah
ĠAr m
Ġsen tr
Ġbus ur
Ġd et
Ġb uat
uk un
ĠM ain
Ġpen aklukan
Ġker amik
ĠArth ur
Ġkor upsi
Ġmemu dahkan
otam ia
r empah
s am
us ung
ĠA ur
Ġpen amp
ep uluh
aw aran
ĠMas ter
Ġjabatan nya
Ġimp or
Kons ep
Ġmewujud kan
8 00
D es
g g
Ġm isionaris
Ġp osisinya
al il
ĠK lub
ĠT uan
Ġmeng ontrol
ĠL as
ĠY i
ustr asi
l ov
o an
y anto
Ġd asawarsa
Ġt ukang
is in
Ġf o
ĠR ub
per ma
Ġperi odik
Ġ193 4
ĠJohn son
ĠKomun ikasi
olep ta
ĠS A
ul d
eri an
Ġ5 3
Ġditu turkan
Ġanti biotik
Ġur anium
Ġna ga
Ġdita warkan
ĠKomun itas
ĠPur w
oft ware
ĠPra bu
Ġkebang kitan
ĠYe ar
Ġpersa ingan
Ġperkembang annya
/ &
P O
c as
k angan
ula tor
Ġkec antikan
Ġlog ika
Ġbot ol
P angeran
V illa
m uka
Ġber evolusi
Ġper lakuan
ĠJ oko
atu hi
Ġmeny uruh
mas in
ha o
Ġpeny edia
ĠLa os
Ġbersa lah
Ġkeda ulatan
Ġungg ul
ĠMaz mur
U M
f aktor
Ġin ang
asi f
os al
Ġker ak
dom an
angs ang
Ġ9 9
Ġmasuk nya
ĠSam uel
Ġmi grasi
G a
h ima
m ia
m esis
ik ator
ĠAr ts
Ġsu ff
awat ir
Ġala s
ire uen
Ġkebang saan
Bad an
ĠMandar in
c ast
ant ina
Ġser ver
ne o
Ġpuc at
emb akan
Ġpemb unuh
kup u
ĠEn ergi
Ġmengg elar
Ġpar alel
dal kan
Ġberpeng alaman
Ġreligi us
D el
L ar
ari t
Ġke ahlian
Ġmem ohon
Ġinteg ral
d ent
g or
ĠN ga
rop us
Ġberp asangan
Ġfr asa
Mas yarakat
str at
ĠRes olusi
Ġmengarah kan
resentasi kan
u it
Ġt enang
do arjo
ĠD ib
Ġn ik
ĠR ap
Ġbi cara
st ar
Ġindivid ual
M ik
P usat
k ut
Ð »
er eng
al olepta
Ġber ujung
Ġmeng as
Ġla ser
enda pan
por a
ĠDes ain
hy n
anyu wangi
M edia
on es
ol k
uk h
ĠF u
Ġmeny entuh
ĠE disi
Ġdip utar
ĠCh u
lan c
rom at
Ġdep resi
ĠKon ferensi
ĠLu as
mesis ternus
S urat
Ġb atasan
ĠT hi
Ġpen anda
Ġc ita
ec a
Ġpem eluk
ac us
utu pan
Ġpan el
Ger akan
Ġprot okol
Ġber ny
Ġber awal
Ġbert empur
Ġpemb elian
Ġstruktur al
ĠSy am
epak ati
Ġtomb ol
ĠTelevisi on
Ġcak ram
s ecara
ĠA er
ĠA la
ser v
Ġketak utan
B ahan
Â ·
Ġ utusan
Ġt umor
ĠS ad
ĠM ajalah
asi li
Ġa badi
Ġc r
ĠH on
Ġdis el
ov an
ĠNov el
Ġsifat nya
Ġfot ografi
N eo
Ġdi olah
ĠD ic
ĠPer guruan
est ra
sis me
ci us
ĠBa it
organ ik
Ġbet on
ĠCa o
P seu
S ultan
la ce
at ap
Ġt engk
ĠS ho
is on
et ra
re asi
Ġdin obatkan
ĠSk y
ĠMada gaskar
A v
P N
T O
y ong
Ġ elit
eng er
Ġdik elompokkan
Ġas asi
ĠSe iring
Ġben ih
ingg uan
Ġbe dah
S ang
T ri
j anya
at han
Ġt adi
ĠS yah
id ung
Ġ19 11
Ġku asa
uf an
one ura
Ġli at
Ġreg num
pr etasi
ĠVenez uela
P seudo
Ġ5 9
Ġukuran nya
Ġkur va
ĠHol lywood
Myc omya
Z aman
Î º
Ù ı
Ġk op
Ġpen amaan
ĠN ah
Ġdim odifikasi
Ġku ad
Ġpetu alangan
ia gam
Ġl idah
ĠC am
ĠF en
ĠU RL
Ġdik unjungi
ĠKe giatan
Ġ192 3
Ġseja jar
A rab
M az
O p
Ġm alang
Ġb anjar
un ter
ĠM eri
ep ha
ĠL uth
Ġpert ambangan
isi r
199 3
ĠDemokrat ik
Ġfinan sial
Ġs ila
Ġse c
ak atan
ĠT ua
Ġpen angg
Ġc erah
Ġ19 17
ĠSh ar
iv ia
omor an
Ġlog o
Ġlemb aran
Ġtr en
ĠFlor ida
g ra
n or
Ġd eskripsi
Ġber diam
ĠD ek
Ġmeny i
Ġmel etakkan
Ã© r
Ġjar um
Ġpew aris
ĠJon es
H eter
Ġse olah
Ġf i
Ġseb ut
oph er
lo ud
Ġ192 6
Pr esiden
Ġsy stem
alian si
Ġdiser ap
ĠLet nan
ĠLuk as
Ġlemp eng
akt unya
h ot
Ã Ł
ole on
Ġdiper sembahkan
Ġmusik nya
ĠMala ka
esu aian
ĠAleks andria
k un
k ulasi
Ġp akai
Ġj ajaran
Ġpen entuan
Ġ19 10
Ġdiber lakukan
C at
M ang
Ġd apur
Ġs alat
Ġp upuk
tu la
tu anya
Ġa donan
ĠKar akter
rak tat
rim inasi
ĠWil son
Ġbij ih
ĠDig ital
ekal ongan
Ġber sik
and r
Ġdit ak
don esian
idup kan
ĠMar oko
Ġkons onan
Ġy uris
K en
P eter
Ġk ob
di g
ĠA ks
Ġmer encanakan
ĠR ek
ĠH ans
Ġmengan dalkan
lemen tasi
Ġleb ah
e ira
m ul
y ra
Ġt apanuli
Ġj uni
Ġn ark
ĠR ab
ab atnya
ast is
Ġsk ema
Ġpetern akan
M oh
z ation
en burg
ĠCh eng
Ġmenggunakan nya
Ġkons ol
Ġuj ian
ĠForm ula
Ġhidrok sida
B intang
k la
Ġs op
eng at
et araan
ĠR og
ĠR af
ĠH ein
Ġpro to
all o
Ġjawa ban
SM A
Mich ael
ĠK ans
Ġmeng aba
ĠL ine
Ġw al
Ġdis ek
Ġdin amis
Ġmilik nya
Ġpad anya
Ġ190 5
Ġmekan ika
Ang gota
mun ic
L ove
Ġs ip
Ġb arisan
da y
ĠE f
Ġpend aratan
Ġkem en
ei ro
Ġtu ber
Ġsub t
Ex oprosopa
Ġkontroversi al
K omun
o es
s ing
il ena
ĠM ulai
ĠB eta
ĠV o
Ġdin osaurus
Ġob li
Ġab jad
Mer eka
ĠBro ad
ĠBengk ulu
Ġdi dorong
el ir
ber to
ma u
ĠPro s
Ġprop orsi
Ġgraf ik
Ġmengor bit
M or
S aya
d iksi
z ia
Ġd usun
in ik
Ġp angkal
or isme
ĠN intendo
ĠF ord
ot omi
Ġpro k
Ġas in
aris kan
tic ons
Ġmemas ang
ĠFran ka
ĠPener bangan
D im
ĠB BC
ĠT enaga
id ana
ĠR ain
ad uan
As am
kh am
Ang katan
Ġsensi tif
d ro
em o
ĠK ayu
Ġmeng ec
ris e
Ġperj alan
ĠSu ara
Ġmagn etik
R adi
S ta
Ð º
ĠS ib
ĠS truktur
um uskan
ĠK adang
ĠB ud
ĠC andi
Ġberk ec
Ġpemb atasan
Ġpat ogen
ĠWilliam s
Ġtangk is
Î¿ ÏĤ
L es
at omi
ĠY es
Ġkap ital
ĠBel iau
elu gu
Ġberm arkas
Ġkemampuan nya
ĠMycetoph ila
els ea
ĠUk uran
Ġkaw in
Mel anagromyza
Ġberdo a
C N
gi o
ĠJ uara
ĠL ag
ĠR S
ac ia
Ġdip romosikan
ĠTe am
aph ria
Ġdibu barkan
ĠHab ib
ĠWh ite
iskin an
Ġberny anyi
D anau
P lot
ĠB apa
ĠB enteng
Ġg lik
Ġr amah
Ġw ol
Ġw aktunya
anj ikan
ĠZ a
Ġperk ataan
Ġep is
Ġ192 1
ĠMin ahasa
ĠWil helm
Bel anda
M odel
W orld
ada lah
tu ran
Ġper ilisan
ĠB lue
ĠT un
ĠL ive
Ġpeng abdian
Ġser ang
Ġker ucut
Ġtel eskop
Ġam erika
Ġberg elar
Ġko efisien
ilik on
ĠDep ok
Ġmekan ik
Kem atian
Ġkomodi tas
g aran
ĠK ash
ĠJ e
ob at
ug o
Ġberj anji
Ġradio aktif
seb uah
sebelum nya
c ea
Ġb any
Ġin form
ĠP av
ĠT aylor
ĠF ort
Ġmeny ambut
Ġmel ancarkan
Ġpeny elesaian
ĠAir lines
Ġperl engkapan
ĠFo und
ĠTerl etak
M aj
l ock
en an
us en
ap ian
ĠAr ch
rop i
ew askan
Ġmemper ingati
Ġmend engarkan
eli jen
atur e
Ġmaj elis
Ġpengg ambaran
osiasi kan
Ġflu ida
C H
il da
ĠM agn
ĠM atius
Ġl anjutan
Ġn um
emb ok
put ra
ĠSoeh arto
I kan
l ong
Ġk um
ing rat
ĠL este
ĠG aya
ed udukan
Ġberk arya
ĠAl jazair
Ka isar
ĠPerp ustakaan
Ġse di
eng e
ĠT ran
ant hi
ĠG ajah
ĠAn di
ons entrasi
Ġsejarah nya
ĠKap oor
etim bangan
ĠXI X
g han
Ġdi ap
Kat olik
onor ogo
Ġbangk it
Ġ imb
Ġk ental
as y
ala san
Ġper ihal
ĠG ala
ot te
se diaan
any ian
Ġpenyi aran
lisi t
Ġrom antis
husus kan
Ġmem adai
Ġmeng indikasikan
ila cap
imb ing
Ġterc antum
Ġinves tor
ĠGal il
f u
h ala
Ø ¯
ik ulum
el ing
Ġini si
Ġper usak
Ġmember inya
ĠEr n
B lack
P B
b es
do do
ĠB egitu
Ġl intang
ĠW id
he in
Ġmemp ekerjakan
ens inya
Ġtomb ak
Ġmenyi apkan
ĠA FC
ĠR C
Ġberk olaborasi
Ġbers edia
Ġres pons
Ġpers ekutuan
arik h
Ġpenc ipta
Ġpur ba
Karakter istik
Ġpenampil annya
Ġdikat egorikan
Ġelektromagn etik
in jau
Ġs aran
Ġla ku
ĠLin ux
Ġtaw aran
Ġteb ing
ĠFlor es
P asar
x on
ĠP ag
re at
entr e
Ġterbentuk nya
Ġmik roskop
Ġpew arna
S ing
Ġmen ud
Ġmem ukul
Ġf avorit
ĠN ilai
ĠG anda
ec tron
ĠCh ap
Ġ9 5
ys s
ĠSimp sons
ĠSud an
M iss
T or
on tan
Ġmen eliti
Ġmen ewaskan
ur ah
ĠM ans
Ġba wahan
ĠL ight
eg ar
ĠY er
ĠY ama
Ġtan am
Ġ8 5
Ġdin ik
ira un
ĠTah ta
ohid rat
B al
L eg
S un
d uh
is inya
ĠK ah
Ġmem eriksa
ĠD usun
Ġmeny eber
ĠU pacara
if ic
Ġpri x
Ġteks tur
Ġle tusan
Ġpenja jahan
sun ami
ĠBek asi
Ġwew enang
in ah
Ġb ub
Ġke indahan
Ġber ik
Ġj emaat
ĠG and
ĠO ut
lo itasi
Ġvir tual
K lasifikasi
Ġs ore
ada u
im ah
ĠIn tel
Ġc ons
li ch
Ġpela yaran
ĠAk tor
ĠHar ry
ĠAf ganistan
ĠLew is
Ġc anggih
Ġpem ungutan
Ġpeng enalan
etu l
ĠTan pa
ĠUs aha
Ġperc akapan
ĠGir ls
ĠPil kada
enth es
G C
Ġ usah
Ġr enang
ud u
ingk irkan
Ġkom entar
Ġmemba wanya
Ġbek u
B ak
S atu
ĠW ater
oni i
A mp
H ingga
T op
c akan
Ġk awat
Ġb ogor
it atif
ĠD ub
Ġmeng gerakkan
imp un
eran si
ĠZh u
Ġtem annya
Ġdi ab
ol y
ed ik
ev ille
Ġdiak ibatkan
Ġau disi
P ember
c ita
k ek
p as
Ġm ark
ĠK ra
Ġmeng emukakan
Ġmel an
Ġsem arang
ug las
ĠLa ur
ond er
Ġditemp uh
y na
en berg
ur ch
ĠR io
isi k
Ġdir asakan
ho use
Ġger ai
Ġ190 8
tiga si
Ġdipert ahankan
iver pool
Put ri
m odel
å ¤
si te
ĠB ara
Ġkem iripan
Ġ5 4
ĠSri wijaya
Ġcac at
ĠKy oto
Ġmenyel idiki
B on
K ualifikasi
Ġp ig
ĠP emuda
ot her
angk u
Ġad iknya
Ġ7 00
omb ak
tic us
alon kan
ĠJo e
pem ain
ĠBis nis
Kec amatan
nig ht
ĠMosk wa
Ġs idang
Ġp ang
Ġp iano
ĠB elakang
ĠT um
Ġpem eliharaan
int ahkan
osi da
iga la
Ġmemper cepat
Ġkomp ilasi
ĠKe empat
Ġmenj amin
Ġis lam
Geor ge
h ua
ĠT elugu
Ġg enggam
ĠL y
ch ar
Ġis yarat
Ġcer min
Ex ocentrus
ĠJac kson
o alan
Ġp aten
per an
Ġpeng eluaran
( "
c ol
d s
ur utan
ala l
ĠY as
inc ian
ĠOr do
ilia si
egi on
cha et
O k
P rancis
c la
at ria
Ġb ass
Ġber gaya
Ġter kini
ala gi
Ġg et
ĠH ub
ant s
tr ak
re is
re dit
ĠAm or
Ġkec erdasan
engk eta
Ġalam at
sh ip
Ġpelaks ana
Ġlib ur
H ong
Ġm ang
in do
Ġb rev
Ġke anggotaan
Ġn ag
Ġw angsa
Ġmel etus
he ad
ĠMah a
Ġint egrasi
Ġmeng uji
Ġman ufaktur
Ġkeku asaannya
Ġ190 7
Ak hir
Ġbut ir
Ġpid ato
C an
M eta
P se
g eme
on de
ĠN u
op otamia
Ġbi ak
Ġad il
ĠAs yur
mp ingi
ech ia
ĠKum ar
: "
c ess
h ang
on isme
Ġmen onton
Ġter owongan
ĠP lanet
ĠR ai
Ġmel engkung
h isme
p emb
Ġp aku
Ġdi re
un ahan
Ġke adilan
ĠP ed
ĠM anag
om us
ja i
Ġg em
ĠG ug
atan an
Ġkem as
ly mp
ĠBudd his
Ġdi il
Ġber enang
Ġper timbangan
Ġh ol
esi gn
ong o
Ġmela tih
Ġpeny erang
Ġpers embahan
ĠWal ter
D orcadion
H O
et z
Ġl itium
Ġr ujukan
Ġser dang
ĠY uda
Ġfil e
Ġmengh apus
Ġkap ten
Ġbela kangan
ĠPan ama
ĠOt to
Ġfer mentasi
ĠTern ate
) ",
Ġm anda
tu pi
ep ara
ĠE ver
isi a
unc ing
yar akatan
enc er
Ġkh awatir
Ġbawah nya
Ġart ileri
Ġkat ak
Ġbuah nya
pr insip
Ġali as
Ġkedi aman
Ġiden tifikasi
V i
Ġp seu
Ġt as
si f
em aran
am oto
Ġber abad
ĠT own
ĠN eg
Ġmengan alisis
Ġot onomi
Ġdid edikasikan
Ġsubs tansi
S ik
U l
Ġ udang
Ġm y
Ġm angsa
Ġh ayati
Ġr ating
Ġpeng ajaran
ĠE ric
ĠMer c
Ġkaw ah
tem annya
C arl
L et
t itik
Ĥ ¬
Ġb ol
un o
ĠS akti
Ġba d
ĠJ eff
ra wa
ub le
Ġw on
Ġdit angani
angg arai
Ġ5 6
Ġar e
ĠAc antho
Ġint ensitas
Ġtur bin
Ġmekan is
P ak
h ina
Ġ à¤
Ġp ingg
gi han
ĠL ind
Ġc ipta
amp ong
Ġsek retaris
Ġsen ilai
Ġbers ekolah
Ġpers on
Ġperk ara
Ġmenyer ukan
Ġspons or
Pem erintah
lob e
dus eri
ĠRob in
ĠKari bia
Ġpid ana
ĠSchl tr
ĠKazakh stan
E ropa
Ġd angkal
ar in
ĠK ami
ĠT anggal
tik el
Ġketi ganya
Ġop osisi
ĠGo wa
ĠTak hta
Ġbund ar
G ol
J an
Ġdi iringi
ip ulasi
ĠMar sh
Ġalk ali
ugi kan
ĠNob el
oriz ontal
chaet etes
L and
un try
em buhan
ĠM edal
ĠT eks
Ġmeng eks
Ġf lor
Ġn ikel
lis er
ĠMen ara
her ine
ĠPal e
Ġkarbon at
car ea
Ġras ul
onda si
ĠJac ob
ĠSci ence
ĠVirgin ia
Ġsuff ragan
M is
q ua
s urat
Ġmen olong
Ġmen dasar
ĠR itus
aj inan
Ġberk edudukan
ori entasi
ĠCir cle
ĠKab inet
utip an
Ġdiaj arkan
perk irakan
ĠSumba wa
Ġkew enangan
B is
Ġ aliansi
Ġp ag
Ġb ip
Ġf al
Ġg rac
ĠR eformasi
ĠE mp
arah kan
Ġmin ahasa
lor ophorus
ĠApp le
Sej umlah
zeg ovina
O ne
s ay
Ġt ro
Ġt omat
us n
ĠM adiun
ĠD ist
ĠAn at
form ers
Ġek stensi
Un ited
ĠKeb ijakan
bar ui
pro vinsi
ĠMari e
May oritas
S K
Ġm impi
Ġp akan
em ari
em akmuran
Ġmen ju
ek aran
Ġmem unculkan
Ġpen olakan
Ġas umsi
Ġbert epatan
Ġdisi apkan
Ġab str
Ġinf an
Ġberakhir nya
Man faat
ĠBabil onia
Ġsentr al
Ġmeng ingatkan
ĠJ uan
ĠL ok
Ġkar go
Ġberk ep
Ġterl aris
Ġman ual
bad an
if a
ne um
Ġsub yek
inc ent
Men teri
ect ric
ĠLab or
Ġfan tasi
ĠAcantho chaetetes
B udaya
O t
Ġn atal
ĠN ich
Ġdik embalikan
ĠAm bon
por ts
ongk ar
Ġpenc apaian
ĠCal carea
ĠKle opatra
L in
m ik
n ai
n ers
ĠO f
st atus
199 7
sek olah
ĠNap oleon
ĠSisi lia
Ġwell si
Ġinfan teri
S ifat
r man
ak ari
ĠP rop
ti anak
ĠL ord
ĠR uang
Ġ19 16
Ġpem as
ĠF uji
st il
Ġka it
Ġmak mur
anak nya
ĠAh li
ĠRe aksi
Ġtangk ai
opuler kan
m asalah
Ġ ungkapan
al inya
Ġse tan
ta v
ĠL eo
ĠR in
utan an
rama yu
Ġdok tor
ick y
H am
L uc
t ri
Ø ¨
ĠA qu
ĠM umbai
ĠT aj
ev ich
Ġga y
Ġluas nya
Ġ190 1
ĠTepat nya
A K
f ak
Ġs utra
tu t
di dayakan
Ġg udang
Ġterg anggu
ov ern
tif kan
ĠTh er
ĠGre at
Ġpenyel enggara
b il
j at
Ġ ana
Ġd ev
Ġk ir
al un
Ġber migrasi
uk ir
ĠB ambang
Ġ19 15
ch sen
Ġdis ahkan
our g
ĠHer ak
ero don
Ġtemb akau
Ġsam udra
Ġgluk osa
B ombyli
M ag
S itus
Ġp agar
Ġber ibu
ĠP aram
ĠK ela
ĠI sa
ĠR ad
op ang
Ġc etakan
Ġdit embak
tan bul
Ġar oma
oni al
Ġur ban
ĠTu buh
Ġpem ulihan
ĠY ordania
ump un
av aleri
Ġam f
ungg ah
ĠFr ont
Ġpenghasil an
dahul ui
ĠPras asti
L S
Ġd ugaan
es p
Ġf e
ĠC li
ĠN ak
Ġv ag
Ġkel emahan
ĠAng el
Pen elitian
ĠHar un
ĠPas angan
mur id
Ġsosi ologi
Ġpersel isihan
Ġditim b
F F
g ata
ĠA U
ab ilitas
ani on
ori dor
Ġdiper intahkan
ĠZ en
ĠSh im
form is
uti ara
Ġpat ri
Ġneg aranya
Bombyli us
M ana
Y unani
c is
ar um
ang dut
Ġdi undang
on it
ĠH ampir
ĠPer an
st e
ĠPro ject
ĠIs land
Ġters embunyi
Pro duk
Ġins pirasi
ph us
Ġkela paran
omi al
Mes in
Intern ational
J ac
K am
r h
Ġm iring
Ġb log
Ġn ir
Ġan organik
Ġsem asa
Ġpenc ari
Tra disi
T eks
Ġs ihir
Ġt indak
ĠM all
ĠB all
ĠV III
ill o
imb ingan
Ġkun ingan
ĠKek ristenan
Ġmisteri us
ĠY on
eter an
Ġpela t
Ġlam pau
titu t
ĠSo und
ĠLi ang
Ġko alisi
amer kan
m ont
Ġd on
Ġk ubah
Ġba caan
ot is
las emen
ges eran
c ons
g ender
er ra
Ġp utus
Ġt ap
ol in
ul o
Ġf usc
Ġn as
Ġmeny anyi
ag anda
Ġsek eliling
ĠFilm s
Ġkeh endak
unisi a
Ġpor os
E up
Ġp ik
ĠP ress
ĠAr mada
Ġmel engkapi
Ġmemb atalkan
Ar t
Ġsup ern
ster dam
Ġpap aran
ĠGir l
Ġd ak
Ġm om
Ġb eda
ĠS r
ĠK evin
Ġbi ografi
ina wa
yc l
hi o
Ġkon on
Ġkecil nya
sen jata
Ġjen jang
n ing
p hy
y st
Ġ over
Ġs tim
Ġt sunami
ia ga
ĠM uh
lu ar
awa i
Ġkonser vasi
Ġkron is
B O
j amin
ĠA ch
ĠK H
ud y
emp arkan
Ġtim ah
ĠCamp ania
ĠWarn er
B us
Ġs umur
ga de
ĠK ay
Ġj o
ĠB rad
ĠT as
diri an
Ġmas ukan
Ġberk unjung
Ġdiper ankan
te ga
Ġpers oalan
Ber bagai
ombinasi kan
ĠOx ford
T eknik
g ani
in ju
un ch
ĠL iv
ot eles
Ġgen om
osi tas
Ġ5 7
aka o
ekan isme
Ġbukan nya
v ard
× Ļ
ð Ł
Ġ yo
er to
ĠB la
ĠJ ong
ĠL ev
ac t
Ġbert anding
199 2
ĠBur sa
Ap likasi
ĠKol onel
Ġsemen anjung
M ul
S ri
i ro
p il
er ick
ĠK l
ĠC opa
ĠH em
ĠH erman
ĠE di
Ġterl arut
omb o
Ġdid uduki
att le
ĠFound ation
E v
a it
h ewan
s ang
Ġp unc
ĠS of
ĠH aw
Ġv en
af t
Ġput era
Ġterp anjang
Ġmengen ali
ĠPol it
ono ch
ĠAnti okh
Ġara b
V ideo
y un
Î ¯
ah agia
is u
ĠK ualifikasi
Ġpen asihat
oh arjo
ev e
Ġkem asan
Ġkes etimbangan
est arian
Ġberm uatan
ĠFor ce
Ġni as
Ġjer uk
gant ungan
Ġperjalan annya
s ha
er ai
Ġb uta
Ġt rig
Ġper hiasan
ti ap
Ġmengh alangi
Ġkak aknya
ĠWi dodo
L ong
S us
Ï ī
la kan
ang alia
Ġs urut
ĠA G
ent s
Ġdik urangi
ona ut
Ġkek ebalan
Ġlar as
ĠSeri e
ĠLaks amana
ĠQue ens
ĠIsti mewa
Ã °
Ġ ucapan
Ġb ata
Ġin ggris
ĠG lenea
Ġma zhab
Ġtak s
Ġy ou
Äģ n
anth us
Ġtugas nya
Ġrep resentasi
ĠNa ga
ĠUr usan
Ġeng kau
ĠSara wak
Ġdiha diri
R usia
S um
V er
m od
Ġke bum
ĠB apak
et ts
Ġf ungsinya
Ġc abai
ĠF is
Ġpeng k
ov ich
Ġkem iskinan
ĠBer g
fer ia
Ġedi tor
c l
h ukum
k opi
Ġs an
ĠM alam
Ġa ja
ec ehan
Ġmemb andingkan
Ġdib iarkan
uc ian
ast ro
ĠSer angan
amil y
ĠÂ £
Ġkotor an
B atas
T u
Ġk upu
Ġf usi
Ġn ar
ic ro
Ġpro gr
Ġv isi
ov en
umbu h
Ġy g
ĠKon disi
Ġle uc
ĠDar win
ĠLat via
k ara
Ġk ogn
Ġper ikanan
ĠH ung
ch ia
int anya
Ġdis usul
ig o
aris asi
elit ung
Ġop era
Ġpeman faatan
F ir
N O
g it
ĠS unan
ik sa
ĠP ohon
ul ing
Ġl umpur
Ġmeny enangkan
Ġser igala
Ġsem ifinal
bi e
ĠSt ephen
Ġ0 4
ver se
Ġsh ow
ĠStock holm
Ġmolek uler
M P
l eg
en arkan
ĠP rad
ap uskan
ri al
Ġsen tu
ĠDi dirikan
ust ik
ĠPh il
ĠMes opotamia
Ġkos tum
Ġpengan tin
Ġsubs pesies
K i
ĠS uh
ĠS iti
ĠP ir
ti um
ĠB anda
ĠN askah
An ton
Ġtu tup
Ġrela si
iam is
Ġkonser vatif
Ġkuad rat
T R
en ing
ah b
do g
Ġmen unjukan
ĠD evelopment
Ġpen jah
Ġal ergi
Ġdih iasi
Is rael
dit ya
Ġkub ik
Ġvulkan ik
A A
b ian
Ġk isaran
Ġper sis
ad uk
las e
sa udara
aman kan
tif ikat
Ġdiper debatkan
ĠKa um
Ġleg end
Ġdipas arkan
ĠRegi on
ĠServ ice
Ġter integrasi
ĠG elar
Ġmeny ir
Ġku tai
Ġterp engaruh
Ġim bang
okus kan
ĠTa o
egun aan
J awa
M ei
d il
Ġt est
ab uk
ilm u
aw et
Ġkem erahan
Ġ6 2
Ġperempuan nya
Ġtangan nya
Ġbis u
Ġayah andanya
Ġib ukota
Ġmagn esium
Ġver tebrata
Ġfleksi bel
A cara
ing go
asi at
Ġmer awat
Ġmeng utip
ons o
Ġ6 6
Ã¡ s
Ġseber apa
Ġemosi onal
z aki
ap ura
et il
Ġla s
lu bang
Ġak rab
Ġmemb ahaya
oc er
ora x
Ġli beral
Ġtangk i
Ġtun duk
Tan ah
Ġdipas tikan
Din asti
C ho
M ur
Ã ¬
Ġdi arahkan
ĠP ower
ĠH ard
af siran
ĠQ in
ering kan
Ġdipl omat
Ġkud eta
ĠA B
Ġh ard
Ġh orizontal
Ġpen yang
ĠL umpur
id ge
umum an
Ġperm ohonan
Ġperl ombaan
Ġpersi mpangan
Ġterbit an
raktik kan
etro it
B ri
K os
as c
Ġj aj
ĠI mp
ĠT apanuli
op ica
wal d
Ġpel uruhan
edi aan
ĠAran eus
Ġmay at
Ġump an
W in
m und
s up
Ġt ung
ĠP lus
Ġpeng emudi
me di
In dia
Ġmu tasi
Ġam al
Ġdar inya
P ras
r oli
on ic
ĠM anda
Ġh aji
ĠN il
eg lang
ĠF an
Ġpeng ajar
end y
Ġsangat lah
yl vania
Ġdin as
Ġmenj atuhkan
ci o
ĠNew ton
Ġujung nya
Ġtaw on
em y
Ġber apa
ĠK it
Ġba gaimanapun
ac ulata
st o
Ġpas aran
das ari
ĠSh Åį
Ġtak tik
ĠAs am
kar ena
199 4
Ġ188 9
Ġsil silah
Ġuk iran
Ġb ireuen
ĠS ingk
ĠP uncak
ĠP esisir
Ġg la
Ġn ga
ĠAr am
pe do
ves tasi
Ġdira yakan
P s
T okoh
z ona
em us
ĠS H
Ġin v
Ġper gantian
ĠD ana
ran us
imp a
ustr asikan
dag angkan
Ġwar alaba
Ġmembahaya kan
T ari
T eluk
d h
p m
Ġm angk
Ġt amb
gi c
Ġl ilin
ĠC s
han us
int on
ĠBr and
Ġken yataannya
Ġkul iner
organ isir
ĠHe art
Mah abharata
Ġfos fat
7 00
h uruf
Ġp ikir
Ġt amp
ĠG ro
ber i
ĠV OC
Ġpemb ah
Ġkap ur
Ch rist
Ġot omotif
ĠSek adau
Ġmon yet
Ġ190 2
rah man
Ġberla tih
Ġfem in
redi tasi
ghan istan
G ar
Ġmen iru
Ġter per
ul ingkan
om m
Ġpen utupan
ĠL em
Ġc up
Ġdik emukakan
ĠIs tanbul
Ġpela ut
Ġperk alian
ĠKor awa
Ġfr aksi
ĠÎ ±
Ġmikro organisme
Ġakadem isi
Ġterit orial
J embatan
K elompok
P ra
b ase
ĠS tone
ik um
eb ec
ĠM alik
Ġkel iling
ĠSt andar
Ġberl ari
Ġlayak nya
ĠPenduduk nya
ĠOff ice
Ġmelingk ar
I T
t eman
am inasi
ĠM ega
ĠB abel
ĠL etak
ua dor
ĠO S
Ġdik ab
tan k
Ġsem ata
Ġpr esi
Ġi lahi
Ġdig oreng
Ġjatuh nya
turun annya
Ġmembu ang
ĠPatri ark
eam ing
F L
J am
P antai
on dow
ak ata
Ġter nama
ĠB il
eg el
Ġkat alis
ĠSat ya
K T
U D
t anya
Ġber buat
ĠD ataran
id is
ih araan
Ġar ena
Ġkon eksi
Ġdig it
15 0
udd ha
Ġberw enang
ye on
Ġpuncak nya
Ġrevolusi oner
Peri ode
n h
si d
am ina
ĠS iwa
Ġmen anggapi
uk itan
et to
ja b
ĠU mar
og r
inc ang
Ġ189 7
Ro ti
Ġbudi daya
j okerto
t le
Ġm ir
ĠC ont
ĠAr ea
Ġser ba
sa c
Ġkom isi
Ġpers epsi
Ġpad atan
erd in
Il mu
tulis an
y yah
Ġdi w
ĠS aw
ĠT es
angsung kan
ĠMas ing
ond ria
chus etts
Ġpengikut nya
Ġpena yangan
Ġmant el
encan anya
ĠTad mur
C erita
T ar
U k
v et
er y
si di
ing ham
im inasi
ĠD aw
bu da
Ġc iptaan
usi anya
ad ik
angk o
Ġbers el
Ġdiper hatikan
Ġen do
Ġpel iharaan
Ġlog istik
ĠGu inea
arn egara
Ġkeber adaannya
Ġantar muka
dik enal
ope za
ĠKenn edy
h r
o dor
Ġb os
Ġdi imp
ap usan
ĠB lo
ĠL iverpool
th ria
Ġpemb antu
ogen esis
ĠSing el
Ġcir ebon
Dep artemen
s ka
en j
Ġb obot
us krip
um sikan
Ġw ir
ingk ah
Ġberk om
Ġbert empat
engg er
Ġep id
Th omas
fan teri
mara chne
Ġd uri
Ġs ilikon
Ġber uang
ĠB ush
ĠI van
ĠY ong
Ġpers pektif
omor pha
Ġpendidikan nya
Ġsab uk
ĠPes antren
ĠMana do
Ġditimb ulkan
E L
O mmatius
Ġ ulu
Ġter i
ĠAl fred
Ġsep upu
ĠAng ka
Ġkek un
ĠGr eg
Ġtr iliun
Ġdira wat
Awal nya
Ġmengaba ikan
Ù ģ
Ġb ik
ĠK emen
Ġn ila
asa d
Ġpemb ebasan
Ġ7 2
yp ta
ĠDav is
ĠDom in
Ġketida ks
Ġpemu jaan
W ar
f en
w arna
em ala
ĠA ta
Ġj in
ĠB und
ĠD eli
ĠT okoh
tur n
Ġpend anaan
Ġar teri
ask us
Ġpenderita an
Ġpenal ti
ĠManag ement
as ari
ĠS arah
ti an
Ġmem enangi
ĠD J
ĠG eo
Ġpem ut
ic omyia
li f
Ġmenc intai
ef ak
tor asi
Ġdiper intah
ĠEng ine
Ġmendi ami
ĠFranc e
anif es
Ġnav igasi
hitung kan
atul istiwa
C he
U U
l ed
p ensi
p ei
Ñ Ĥ
tuk ar
Ġmeng awali
Ġn asihat
Ġmeny embuhkan
lu or
ĠW en
Ġseb anding
Peng embangan
Ġterc ipta
Ġ189 8
asili tasi
ro ad
Ġmer ep
Ġmeny atu
ĠU lu
wan da
Ġer opa
Dem onax
w n
Ġ iri
al engka
am erah
ti si
Ġmeng ucapkan
ri es
ĠJ ama
Ġpeng er
199 5
Ġko ordinasi
Ġ190 6
mo uth
ĠPember ontakan
H o
N i
P il
c ong
Ġ amun
al iran
ĠS atuan
um in
Ġmem bangkitkan
Ġl onc
os ta
ub ungi
anj urkan
ua ya
ĠCh elsea
Ġdib ahas
Ġar k
eja an
Ġins truksi
dow n
ĠBol ivia
omenda si
es okan
Ġ" ,
ir ikan
bu d
ĠL ut
Ġbi bir
ĠKe dokteran
te x
tab ilan
tim eter
Ġ189 0
Ġyuris diksi
b oy
j ong
n at
Ġ och
en ai
ang er
ik lan
im ba
ĠT ugas
Ġg itaris
Ġr aj
ib ar
Ġberb unyi
Ġ8 8
Ġpers entase
ĠKor ps
ĠTr ump
D ampak
y id
z al
Ġb oj
Ġw e
B as
D acus
Ġd ong
Ġt ub
Ġt opi
ĠA ra
ĠC le
ĠN um
eg ro
ĠF air
ĠAl f
ĠMal ta
Ġmengak ses
199 6
Mas akan
Ġny aris
L C
p lan
p ohon
Ġt rip
ĠT rip
isi h
Ġut ang
oc erus
su i
awat iran
omor f
war ingin
etu lan
Ġstabil itas
c atatan
p ongia
r eh
Ġm utu
Ġg roup
Ġdih ilangkan
ĠMer upakan
ly n
Ġmet ro
Ġ188 5
ĠAdministr asi
ĠKuta i
A bu
B ers
Y ah
b anyak
r l
Ġt atanan
il ya
us uhan
el son
ĠC yr
Ġsp ekt
ĠKon sili
Ġkarb ohidrat
ĠKla sik
Ġberik lim
l ess
Ġt egas
kan dal
ga zine
ĠK anaan
wa it
Ġc ol
ĠH end
anj at
Ġterp enc
ĠSep anjang
Ġop si
oni us
ĠTh ai
ĠQ atar
Ġtrans paran
sil angan
Ġpemba caan
ĠMich i
ĠTor onto
pes awat
D ar
W F
Ġp ub
Ġp ompa
Ġdi lam
Ġse x
ĠN eo
eg on
atan nya
Ġmenc alonkan
Ġberp isah
Ġmember ontak
ĠBers enjata
Ã§ ois
Ġsit kom
Ġparam eter
Ġfrag men
ĠBangk ok
Rich ard
L ambang
o las
ĠS imbol
Ġper ancang
ĠM S
ĠI U
Ġr ak
ip a
ĠMo z
Ġdila pisi
Ġsy uting
Kep ulauan
ĠÂ ±
Ġroman sa
Ġmenud uh
E AN
K ucing
do re
id an
Ġseb elas
Ġpr ima
anta p
ris h
ĠBi ak
Ġinter pretasi
F e
H z
M akanan
c ter
o lat
Ø ©
Ġs angg
is ap
Ġ" .
ĠH uang
Ġap artemen
if ikasi
Ġz o
ĠSen jata
ĠFran sis
Ġkak inya
ft aran
Ti ongkok
ĠLim ited
G empa
K ementerian
R i
d Ã©
n askah
p os
Ġm omen
Ġs umbang
Ġk ok
Ġdi gabung
Ġper antara
ĠG lobe
Ġpemb uru
rit i
ou ch
Pen yakit
Ġtr em
ĠHer zegovina
Ġul tra
ĠSl ow
egak kan
S erangan
y x
er u
Ġp ost
on versi
ĠS T
Ġke baikan
Ġber genre
Ġmen ab
ĠA i
Ġj ej
ĠM anga
ro y
Ġpem ilih
Ġbi rok
Ġdip anggang
Ġan n
dah ulunya
ode x
Ġ5 8
Ġdir ebus
ĠPeng etahuan
eci al
W aktu
f lix
em er
ĠP ah
ĠG at
Ġfil ter
Ġdip anaskan
Ġkon versi
Ġdekat nya
Ġe uk
D P
D esain
W a
e opsis
l oh
si mo
ĠP angkalan
ir ia
Ġl iturgi
ela jar
ok la
Ġc l
gun ung
ev o
Ġda ur
Ġdiper kuat
Ġpemb eli
ĠSt atistik
Ġpengh uni
Ġteor etis
Kor ea
Ġusah anya
C i
j elasan
t ama
z awa
Å ¾
Ġm aya
ang un
Ġb ea
ro sa
ĠT ony
ĠL ud
ĠF al
ot on
Ġkes an
ju ta
Ġmemper caya
ella ta
ĠKomp leks
wor th
b re
en k
si de
ĠP hytomyza
Ġper bankan
uk uh
Ġj ah
Ġl ereng
ĠN ab
ĠN ai
Ġc as
tan i
Ġkep unahan
k ey
p y
Ġm ont
Ġm arg
Ġm ingguan
ak iman
ĠS ung
ba g
ĠT ong
ja wab
eh id
ĠC ru
ĠR on
eti c
Ġdil ewati
Ġditu duh
ĠX II
ĠSam ar
Ġ189 5
ĠÃ ī
ĠLap angan
Ġlanda s
G A
K et
ä º
Ġp intar
Ġdi uji
ĠS ifat
ĠP oso
Ġbah u
Ġsendiri an
Ġpel epasan
Ġmaj emuk
Ġaw am
ww w
Pes awat
E ng
en ni
Ġs amar
at uk
or b
Ġke war
ĠK ardinal
ĠM ex
ĠI N
Ġmeng imp
Ġmel epas
ĠAm sterdam
Ġpend ingin
Ġkon v
ĠHar ris
ĠBo ard
Ġdikar unia
Ġlib uran
D ol
P on
d era
r ana
Ġk embang
ada k
ĠP emba
ĠM yc
uan sa
ĠPer juangan
emb ar
Ġkom ite
Ġpeny us
ĠUni versal
men y
ĠOk inawa
Ġac uan
Ġup ah
ept unus
Ġdikirim kan
Ġfos for
Ġmenyang kut
C hi
M il
is aris
Ġn apas
ĠR eview
emu anya
Ġdit ekan
Ġker ang
ark is
Ġberw ujud
Ġketer sediaan
Ġ190 3
Peny ebab
ĠAnton io
A st
A sia
J uli
z ania
ĠS amb
Ġmem ulihkan
Ġmer ugikan
Ġpen in
ĠL okasi
os tr
ed s
end en
Ġant ark
Ġdir ebut
An n
alur kan
Ġpengh ubung
our ce
Ġpat ah
ĠAf ghanistan
empurn aan
% ).
l angkah
Ġd eb
ol es
ĠM arga
Ġpen ip
ip at
ac unan
enc es
Ġkomp oser
oli us
Ġterm uda
Ġdr astis
unct ata
Ġrer untuhan
Ġmenyemb unyikan
in y
Ġt om
or as
is al
Ġke anekaragaman
Ġber orientasi
Ġj anda
Ġj anji
ia e
ĠD ef
Ġf akultas
Ġn otasi
Ġpel edak
Ġmener jemahkan
ff e
ĠWh it
ĠPec kham
ĠCham ber
ĠS es
Ġke hancuran
Ġba yangan
sa lah
ni vora
Ġkons ekuensi
ust inus
Ġreg ulasi
for ma
ĠMul ia
Ġnya wa
Ġdibu didayakan
Ġkesi mpulan
ĠSqu are
/ "
D I
b et
Ġb h
ga in
ĠP yth
Ġmem utar
ĠG aris
os s
Ġmend esak
ĠAk h
etus kan
Ġs ula
ah ara
Ġmen antang
Ġmen tega
el op
ĠK oda
ĠB rian
ĠJ aringan
Ġw alau
ĠAn ne
Ġsa yang
ĠW arga
Ġdik utip
Ġdis arankan
ĠCh art
Ġjam inan
ĠGreen land
M T
O li
R C
m ing
Ġs anto
ĠB av
Ġla gunya
ĠL ady
Ġc ha
st al
Ġjam ak
Pro f
Ġberisi kan
Ġpar sial
Ġbek er
ĠBos ton
ĠDel hi
Ä Ł
ya w
ĠT ik
Ġn u
ĠW ati
eri kan
angs ungan
ĠKep ler
Ġspesi alis
Ġpur worejo
Ġteor ema
E P
P in
U lar
Ġb ujur
ĠP ay
ĠIn fanteri
ot in
ĠU z
Ġpasi f
Ġperse diaan
Ġpersen jata
ĠStev e
Ober ea
Jos eph
erdin and
m emb
u ar
do va
eb e
ĠH ur
and ungan
ĠG og
ĠV la
ĠAm ir
Ġkerus uhan
Ġpel ecehan
Ġsekali pun
Ġtemb ak
ahagia an
K ong
er na
ta gram
Ġmen ular
ĠI C
Ġa ff
ĠR encana
op al
ĠIn dah
Ġbah agia
ĠAl an
Ġis inya
Ġsab un
Mes ki
ĠMoh ammad
UH AN
h ya
o gi
Ġd egradasi
Ġk aku
ari asi
ĠP ekerjaan
ĠB un
ĠD il
ĠT em
Ġker ajinan
og rap
utu han
ĠOr gan
Ã¡ r
Ġmembu juk
Ġdipro duseri
D ic
M B
P ark
c ore
w ali
y ut
ĠH op
angk ar
ĠIs kan
Ġsistem atis
Ġberm ukim
ĠIb unya
Ġdek or
ĠCl ark
Ġfarm asi
L atin
S imp
V ol
Ġm art
ara u
im anya
Ġpada hal
ĠD onald
Ġg antinya
ela tan
ĠR ev
Ġc hi
tr et
Ġkes ultanan
Ġpol usi
ĠZ ain
ĠMen y
Ġkont inu
Ġdila tih
E unidia
O xyopes
l Ã¨s
Ġs ingk
Ġb arito
ik irkan
ĠC atatan
ĠH ir
os ong
ati vitas
Ġ18 70
Ġ9 8
Ġberm otor
ĠBor neo
sol ut
R oy
c erita
r ina
Ġ *
as er
es in
ĠM uara
ĠM asalah
Ġf unda
om asi
ĠC alon
ĠC ross
ula sinya
ot ek
ma g
Ġdik laim
Ġap el
ini us
anta uan
Ġdih id
ank si
Ġpernikahan nya
Ġni at
Ġmenda dak
ĠÂłĠÂł ĠÂłĠÂł
Ġpemro sesan
Ġsint etis
C erodon
K ampung
r ence
Ġber status
ur as
Ġdis epakati
ĠSt en
likasi kan
Ġakibat nya
ĠMah asiswa
Ġaman at
ulia an
ĠAut obots
elus uri
Mart in
Cerodon tha
' m
n old
at su
Ġdi anjurkan
ul ir
ĠR iz
ĠG ot
sat elit
ago ya
ĠFer r
Ġpon dok
Ġgun akan
Ġmengemb an
c ana
c ont
Î ³
Ġter ima
el y
ĠD etroit
eh r
tr ol
Ġw h
Ġmel ek
Ġket egangan
ku adron
ump amaan
Ġkel opak
Per ubahan
Ġsub strat
ĠSt ef
Ġkl ip
uasa an
lin s
hy s
Ġkil ogram
Ġrel evan
ĠKos ovo
ĠArist oteles
A lat
l Ã©
Ġs ala
da un
Ġber latar
ĠL ep
Ġc han
Ġseb aran
Ġal fabet
aj u
ĠCh in
Ġpeny erangan
Ġmemper ingatkan
Ġga wang
ĠPem impin
199 0
Ġbat ik
Ġtek stil
A bad
la ut
Ġdi agnosis
Ġter ungkap
ap u
ĠC ab
Ġr uas
ud aranya
lu enza
ĠW all
ĠO xy
Ġ6 8
Ġsp ontan
Ġkeber anian
ĠSar jana
uss ell
ĠSlow akia
k or
Ġk adal
si ma
ĠB esi
ula inya
ĠU ganda
se e
Per istiwa
erja an
ban k
199 1
Ġ189 6
Ġ188 4
ĠBe at
oksida si
Ġspir al
Ġbung su
Ġdieks ekusi
iform is
F a
M M
b un
k ov
as ah
is ans
ĠA in
el ma
ĠB oro
ĠT Åį
Ġn anti
Ġset ingkat
ĠAng likan
Ġpekerja annya
vid u
ĠKam is
format ika
Ġdikarunia i
E st
R ed
Ġb ilang
Ġper geseran
ĠM iller
ĠB y
Ġl et
Ġpen awaran
op y
op ro
ĠG ag
os in
ind ang
etah ana
atif ikasi
Ġfor um
egat ron
ĠWol f
ryp t
ĠTechn ology
b odi
Ġ ec
es se
ĠA N
it ah
ĠM ike
ĠB one
Ġl ep
Ġpen anaman
ĠG amb
Ġpem ikir
ĠF ood
ĠF ree
th an
ĠPer damaian
og rad
isti ra
ĠJa va
Lou is
N ov
i lah
ĠM im
op ean
ĠG all
amp uran
Ġdit unda
Ġkep ausan
Ġbar unya
ĠMar gar
und ingan
Ġseba iknya
okoh ama
Ġ189 9
ĠHasil nya
Ġinfr amerah
Ġdemonstr asi
B ay
F aktor
× ķ
ang o
Ġb oc
uk us
ĠM inyak
ĠH il
ic arakan
ĠO lymp
idup annya
Ġkem unculan
Ġpes tisida
Ġind ikator
mu dah
Ġ188 6
burg h
Ġped uli
ĠPekan baru
Pros opocera
ĠDec ep
ĠMassa chusetts
ĠSatur nus
T abel
y od
Ġp uk
ol on
ĠK RI
Ġmer i
Ġl ans
itu ania
emb ara
esa ing
eti aan
ĠBa ch
Ġam onia
Sen yawa
Ph il
Jo han
ovi Äĩ
Ġjen uh
ĠPari wisata
D C
g ur
at ha
eb ra
Ġsamp ul
ow ski
ĠDem okrasi
ĠEur o
rem ans
ĠHel en
ns ylvania
Ġdor ongan
. ),
M aria
it on
Ġ1 12
ri ya
ĠN on
ch t
Ġser buk
tan ah
ob ik
man uel
Ġkes epuluh
Ġjuta an
ĠSem akin
Ġkat edral
Ġmew arisi
Ter jemahan
Ġtr ek
Ġo zon
Trans portasi
ĠGram my
Sed angkan
Ġdiab etes
ogr aph
A di
B endera
D ata
m g
Ġk ip
Ġdi eja
ĠK Åį
ĠB angkalan
ul yo
Ġmeng urus
ĠL ip
ent in
ĠV a
Ġmengh adir
Ġkh alifah
ĠTer masuk
Ġre aktif
Ġkontes tan
ĠCarl os
Ġmom entum
Ġmenyir atkan
F er
L ayanan
b aran
m or
w ick
Ġb imbingan
si stem
al ek
Ġin terior
ĠK n
ul tasi
ĠT amb
ĠT ujuh
Ġg rand
ida yat
ĠCh er
Ġpersenjata an
H eli
k omun
k ecuali
Ġ endapan
la l
ĠD rop
ĠKe diri
Ġad u
aku asi
Ġkla d
d angan
f ar
Ġd eli
is c
Ġper amp
ba gi
alam annya
ĠC ambridge
ĠJ urusan
ow ali
Ġproduk tif
Pela tih
Ġabstr ak
K onf
W h
m s
n yataan
Ġ asia
at ipula
si atur
Ġdi et
il ey
ĠK ha
Ġmeng amankan
ida l
Ġpem akan
ad ing
ĠW ind
Ġv akum
Ġsem buh
yl otr
ens asi
ĠKer remans
odi m
Ġinter vensi
ĠBudd hisme
ogen ik
Ġpeda s
Ġeksp lisit
Ġinduk nya
Ġsaud ari
ĠOri ental
M ega
ut ong
ap ung
Ġun ta
Ġr amai
ĠX ia
ker ajaan
Ġgi zi
ID S
B ea
G I
Ġs ki
Ġp eg
Ġk enc
ĠM NC
Ġf ur
ĠC ip
ĠH D
ĠSa v
bern uran
Ġ190 4
dim ir
Ġtent unya
P emenang
g ah
Ġt emuan
Ġke turunannya
Ġber cabang
ĠK Ã¶
Ġj as
ĠI de
Ġr ev
ĠL ov
ot rop
Ġked elai
ĠEn d
Ġik at
Ġpand uan
Ġperc intaan
ingg ung
Sin ga
ĠBal kan
Ġâ Ĥ¬
Ġtemp o
ĠRegi onal
Ġdiag ram
' )
D om
L ab
S ab
V III
h ad
ĠK re
oc lytus
if olia
te ori
ĠHa ute
Ġamat ir
Ġbeker jasama
T ok
k ot
Ġdi usir
Ġw aris
ena an
Ġmel impah
Ġterb ar
Ġtop ologi
H em
S erial
ĠS Ã£o
Ġke jaya
ĠA PG
ĠM eta
ĠM ovie
ok ar
ĠE ra
ĠO h
he e
ram en
ĠOt t
ĠNet flix
Ġhidro karbon
Ġeksi stensi
G P
Ø ª
ĠS anti
Ġter dahulu
ĠI dol
Ġw asit
end s
Ġkimia wi
ven tion
Ġdisk riminasi
Ġpir amida
Ġlegend aris
ylotr echus
S ec
Ã ®
en tur
Ġp ilih
Ġb asal
Ġdi akhiri
Ġber adaptasi
ap annya
ĠK oto
ĠI o
ir sa
Ġr asanya
ĠJ ohor
ĠF itur
Ġser atus
Ġsu aranya
ĠAl len
Ġberba u
ĠKon awe
Ġpin ang
Ġ190 9
ashi on
ĠPlat o
Ġdiferensi al
B ukit
D isk
R eg
i yah
Ġd eter
Ġp etahana
Ġt al
Ġse umur
ĠS uhu
ĠD ai
Ġmeng es
Ġc atur
ent alis
ĠW ed
le e
Ġsp ek
oy uz
ce an
Ġpenj uru
bol inggo
ush u
ĠPerk embangan
ĠSom alia
Ġpengas ingan
Ġkekun ingan
B unga
G ram
R um
Ï Į
Ġk enal
ĠM emp
ĠR av
ch is
Ġmeny amar
ĠO c
Ġsek uler
hi bit
Ġtel anjang
Ġstr es
log an
Ġkonstitusi onal
Ġpay ung
Ġmain an
Ġaward s
Ġkemen terian
Ġmenghadir kan
I bu
Ù ĥ
ĠI z
ĠG oth
ĠV atikan
ill on
Ġketer t
ĠSing le
ĠKai ro
ĠStor y
dokumen tasikan
ĠRC TI
Ġkebum en
D E
L embaga
S O
T anda
al t
uk lir
ĠT j
ĠC itra
ĠC entre
ĠL yn
ĠH ome
ant aran
Ġpeng angkatan
ic es
tan egara
gu e
Ġsep aruh
Ġga ji
As osiasi
Ġnasional is
ĠDir ektorat
Ġpras ejarah
lemen tasikan
D ek
Ġd urasi
si er
Ġter as
ara sikan
ĠM egatron
ela war
Ġsej alan
ej ut
tor itas
ĠZ im
ĠQ i
ĠTe ater
Ġparti si
D ik
in as
Ġt rop
um erta
Ġg und
ĠC N
Ġc onc
amp ang
Ġpeng urus
th ew
ĠW omen
Ġditer uskan
Ġbers embunyi
yar atkan
uc a
Ġkom itmen
Ġpel opor
mp ing
ĠAng ola
Ġrah ang
Ġaset at
ĠBill board
Ġtengk orak
C inta
K awasan
Y u
Ù Ĥ
Ġb eli
Ġt egal
ĠS op
ut amakan
ĠP enda
asi o
ĠN ara
ĠN ip
ĠR ut
ant in
ĠU lama
th ers
Ġdim ungkinkan
emat is
Ġpenjah at
Ġterpenc il
S eni
T ata
k et
s ungai
y es
ta lasi
ĠT UHAN
Ġc am
ch es
ĠE ti
Ġdit eliti
Ġan atomi
Ġal l
ola li
ind ustri
Ġpol in
Ġ10 1
eli x
Ġberl ebih
ĠBi ara
xin ella
D PR
Ġd ram
Ġt eg
Ġse dih
ĠK adipaten
asi la
Ġmeng el
Ġun ic
ĠC it
and ro
Ġw orld
Ġkar tun
Ġi ii
ric e
alik ota
Ġdaun nya
Ġmenghar uskan
ĠPon dok
Ġá ¼
Ġtaks onomi
R am
d ina
j ono
l eb
Ġm ud
Ġp all
Ġk im
on eta
ĠI P
Ġf re
Ġbi arawan
unga gung
uss alam
Ġcangk ang
lun atipula
k amp
Å Ľ
Ø ³
Ġin angnya
ĠB anj
Ġl ive
Ġmeng ikut
om ec
ud an
ĠU K
Ġdik ritik
Ġpeny usun
Ġpol i
hy un
Ġmenda ftar
ĠPD B
Ġfilosof i
Ġdiil ustrasikan
D uta
S ci
É Ļ
Ġt am
kan a
ĠY our
Ġmenc antumkan
ensi k
Ġdiper panjang
ĠPen ulis
ĠPi erre
ĠTan zania
Ne olophonotus
pert ensi
Ġsol id
ĠMill idge
ĠMichi gan
B ern
M ir
h ian
Ġp artisipasi
ĠK eter
ĠI w
Ġc engk
aw in
Ġdip elihara
Ġmenc olok
Ġpeny erahan
Ġbelakang nya
St ation
Ġspesi fikasi
Ġund angan
eper gian
Ġkewar ganegaraan
C ambridge
K eber
T eknologi
s ai
å ®
Ġk awan
Ġg elas
Ġr anting
ĠR ol
ok ong
ay ana
ĠF M
ot il
ent askan
aran i
ob ar
Ġdiper dagangkan
if f
Di visi
ĠSt ates
aks anaan
Ã§ a
ĠDu bai
Ġsedi men
A ks
R ay
W il
y Åį
si g
us tic
ro ke
ĠT ul
ĠJ ati
ĠR T
Ġor al
ĠF inan
Ġser v
Ġ8 6
ez i
Ġprof il
aca uan
ĠEk uador
Ġâ ĪĴ
kai do
F i
L og
b ilis
v est
ĠA j
Ġper orangan
ĠM anggarai
ĠT unisia
Ġmeng udara
Ġmeng onsumsi
Ġpem ekaran
ĠE t
re gasi
Ġket ahanan
Ġma af
Ġditu tupi
ĠPeng h
asis me
oro kan
ĠSu zuki
ĠAnd erson
Ġtran sit
ordin ator
Ġev aluasi
enh agen
Ġnark oba
T ai
d r
f oto
Ġp orn
Ġdi jaga
un ikan
il id
ĠS E
ing o
ĠM ali
ida p
ob e
yc e
oc oc
Ġtand ang
ord er
Ġmet ana
Ġperb ukitan
yo ung
Ġrek reasi
Ġgar ut
Ġhib rida
S om
em ai
Ġke diri
Ġper empat
uk le
ĠK och
ĠT b
ung ut
Ġpem asangan
oph ylla
est es
est inasi
de x
pro gram
Sek itar
Ġny anyian
B ra
S ol
S ampai
z el
ĠS itu
ta wa
eb el
ĠB ry
ĠJ arak
ĠL is
ĠG abri
ĠW ikipedia
Ġdik eringkan
ĠY okohama
ea ux
ĠPr emier
eli us
ĠBr uce
Ġkek acauan
Ġmul tip
Ġpengan tar
ĠLap oran
ĠGran ada
Ġpenangg alan
ait un
Ġs yair
em in
eb usan
im u
Ġmer k
om oda
ĠC iri
Ġpem akai
Ġw ah
Ġpemb eda
aksi an
Ġres m
Ġmenj elajah
Ġelektr ik
oll ing
ĠCom m
Ġperc epatan
Ġneg osiasi
ĠSim alungun
ĠAnton ius
B os
S osial
V II
Ġt ag
it alis
ĠM eh
ep alai
op oli
Ġbert enaga
Ġ6 3
Ġdilakukan nya
Ġmod ul
ĠAt lan
ĠMis sion
Ġb epergian
Ġdi v
Ġmer iah
bang unan
apat i
Ġsek umpulan
va dor
gu chi
Ġberk ali
ĠAs mat
ĠPers emakmuran
Pro yek
ĠAnth ony
x a
di en
Ġh o
Ġh its
ĠH om
Ġ3 50
umlah an
Ġ18 64
ĠDi perkirakan
Ġ0 5
Ġ189 4
Ġmerek omendasikan
ĠEks ekutif
Ġir igasi
ĠKomp uter
SI S
ĠNik ola
Bang unan
Ġdemokrat is
Ġdihadap i
G aya
g round
Ġs ho
Ġs perma
ak ur
ĠB ib
Ġf it
Ġpen dahulunya
ĠH av
ĠG ong
ĠF aktor
oh a
Ġdis elamatkan
ind ar
Ġkom et
Ġga ding
Ġmaka lah
ĠKu wait
Ġ188 0
ĠBanjar masin
Em pat
ĠPatri ck
Ġtang erang
Ġmorf ologi
Ġhier arki
Ġkogn itif
K O
k urang
n ovel
ĠS lavia
Ġmen trans
Ġw arn
st one
oph rys
Ġart istik
ĠEp arki
Sp anyol
Ġdidapat i
yth icomyia
ĠNap oli
Ġkekh awatiran
Ġpig men
Ġkait annya
o ya
Ġp uasa
Ġk ad
Ġk ation
as aki
ap er
Ġper ebutan
ĠT anda
Ġju al
per istiwa
ĠG ua
Ġseb ulan
ib ia
ator y
Ġ15 00
Ġsosial isme
ĠâĢľ "
kar yanya
Ġberc ampur
ĠIm peri
ĠJaya pura
So uth
Ġil ustrasi
ĠCho ice
Ġoptim al
G aris
S ophronica
b ell
g ing
s hire
Ġs umpah
ak es
ĠS ains
ba ca
ĠB ow
ĠT ed
Ġr eview
ĠN agoya
Ġa y
ĠL ing
ĠL ot
ĠL ain
ad es
ĠU lar
ed u
gu es
ind ra
yo ut
ĠAS EAN
alif ahan
ĠBeta wi
M it
P ohon
Ġdi antara
Ġdi pertimbangkan
al ut
ĠB ai
Ġf la
Ġr ug
Ġmeny eluruh
Ġpeng epungan
ĠAk si
ĠHen ri
ĠProf esor
Cop ris
T ipe
Ġ usianya
ar et
Ġp ek
al um
ĠK od
ĠD eb
ot en
ot ing
end arai
ĠDi am
por e
dak wa
Ġkat up
ys pongia
Ġab solut
Ġketer batasan
Pol itik
ĠAma zon
ovan ni
l ika
t ator
ĠA TP
Ġter lahir
ĠP abrik
ĠM A
Ġr encananya
Ġdis atukan
Ġsep ur
Ġz aitun
Ġre ak
Ġmenyer takan
Ġisti rahat
ĠHar vard
Ġantrop ologi
K as
c ks
k ed
p apan
r ons
Ġb ali
Ġt um
Ġt oksi
Ġdi ur
ĠS utradara
ĠB atalyon
Ġl ob
and uan
ĠF amily
est ari
ĠPen nsylvania
qu ot
Ġ9 00
ĠSp arta
ĠSek jen
ĠAb dur
Ġge omet
Ġlemb ar
Ġdesain er
Ġtari f
Meri dian
anthi dium
ĠDecep ticons
S ti
e uk
k ura
l embaga
n ada
v us
Ġb ra
or ter
us hi
ĠA R
ĠK w
esi as
ĠI PM
ĠD ol
ĠT indakan
ĠC ra
ĠN AT
Ġpem irsa
Ġterh itung
Ġkons ultan
ĠAs asi
Ġ9 2
Ġkeb ahagiaan
iv i
Ġbur sa
ĠDe ad
Ġrah im
ĠBus iness
Ġgul ungan
k idul
Ġ ip
Ġp ustaka
ĠS ea
Ġber dag
ĠM angk
ĠB lok
asi us
Ġr usa
ĠH ealth
ant ra
ĠEn am
ono giri
Ġint ensif
ret ariat
Ac alolepta
Ġtaw anan
ĠAy y
ĠKonf ederasi
M obil
T mesisternus
d inya
g il
à ®
Ġin put
ĠA yu
ti onal
ĠD atu
Ġpen is
ĠH ig
ec at
Ġsa ingan
Ġberk er
bi jian
Ġperk umpulan
Ġkeh idupannya
Ġditulis kan
Ġ189 2
Ġmenang is
Ġimp lementasi
Ġbot ani
Lept ogaster
part ement
B re
K egunaan
h or
Î ¬
Ġk astil
Ġt inta
ĠB od
Ġl antas
ep tor
ingk ai
ib an
Ġku bu
arti r
urn er
akup an
Ġbeb ek
bur ung
ĠSy bra
Ġmembunuh nya
ĠKomp as
Ġmeta f
Ġpeti r
N ot
Y a
e do
k ur
l oid
m il
en egro
im on
et ing
ela ga
Ġc ikal
ip al
ĠE P
ĠW o
Ġkes uburan
ka itan
ĠAg us
enc ian
Ġ7 1
Ġmenyer bu
ph one
oro ti
Ġketer gantungan
Ġberjalan nya
elan jaan
kop al
ĠNorm an
esth es
ĠQueens land
Ġmeri dian
D en
P ri
u arakan
Ġ anion
Ġber urutan
et ti
Ġg etah
Ġa v
ĠL ept
ĠH onda
li o
Ġmas ter
Ġal fa
Ġterp adu
oy d
az i
Ġmengan t
Ġmengg ali
ĠBag h
ĠYud istira
Ġsib uk
akari da
N ik
or ejo
ĠS n
ĠS ila
ĠP ihak
ĠB ebas
ĠI katan
ĠR wanda
ĠG ory
Ġbers kala
Ġ7 6
Ġur in
ĠMo on
Ġkur sus
top ogon
Ġprop aganda
ĠExp ress
Keter angan
H u
Y ou
Ĩ Ĵ
Ġm egal
Ġs akti
Ġk ov
kan ak
Ġmem ecah
ep a
os obo
uh a
Ġpeng umpulan
Ġsa gu
Ġker is
sa f
ĠPen emuan
Ġterp usat
Ġterp ecah
Ġmengen ang
ĠGu at
vi us
Ġpember sihan
ĠTa ufan
Ġpu as
ĠCan nes
Ġhom oseksual
Ind ustri
Ġjej aring
Ġresm inya
T un
j ati
tu gas
Ġg emb
ĠN anjing
ĠH ut
ot bah
Ġbesar an
und angan
ell ia
ĠSa yangnya
ĠBa u
emi um
elak angan
Ġglobal isasi
ĠIst ri
Ġbal ok
ĠPon tianak
Ġdipro ses
Ġcel ana
ĠPrad esh
omoda si
K lub
P lat
n d
r anya
Ġp esaing
el uler
ĠP impinan
ĠK ej
ul on
Ġ1 15
Ġr int
ĠIn g
Ġmeny ingkirkan
ic ypta
oh en
Ġdiper baiki
Ġpener bang
ric t
iti es
Ġterd eteksi
Da un
onj ong
ĠÄ Ĳ
Ġkompet itif
ĠYos ef
Ġpengeb oman
Perb edaan
d em
p lat
y um
es sa
ĠB urn
ĠE ff
Ġbi color
ĠU ranus
ew ar
ĠV incent
re i
Ġkes etaraan
ust on
Ch ar
dis k
Ġtop eng
Ġso undtrack
Ġarke olog
peny anyi
F red
I M
R egion
V ill
b b
ĠP ant
ĠB elitung
aj o
Ġpas c
Ġ7 8
Ġterp asang
Ġsar ung
.) ;
arget kan
M arg
P res
g ambar
j akarta
Ġm and
Ġdi eksp
im un
Ġr edak
ay ama
ila k
Ġas rama
Ġ6 1
Al ur
ahari an
her ia
ĠAz tek
Ġsir kulasi
ĠDo uglas
ĠUz bek
J er
e er
j urkan
Ġ Â°
Ġm ega
Ġk ag
as o
ti us
Ġ1 18
ĠL istrik
ĠH ati
anj ak
Ġker janya
Ġak ademi
embang kit
Ġkem arahan
Ġhar mon
ine e
ĠSur ga
Ġpengg alian
ĠProduc tions
Austr alia
P ad
p lanet
Ġ gai
Ġmem antau
Ġr u
ĠH old
ĠAr ena
ila del
aj ukan
tar sus
ig en
angs anya
yl and
Ġ13 0
Ġdom inasi
Ġdila lui
ĠToy ota
Ġpist on
ĠHist ory
ĠBav aria
ĠGuat emala
c um
Ġke lahir
Ġper silangan
ĠK idul
ĠB iru
ĠD oc
ĠT eh
ĠR yan
Ġsu f
end emen
ĠV in
ĠRa bu
kh usus
Pi erre
Ma x
Ġteb u
Ġpist ol
b alik
s han
Ġp antas
am al
eb ur
ĠK ad
ĠM TV
ĠB int
et ris
ay anya
Ġkep ing
le i
Ġdim ulainya
Ġar omatik
Ġger bong
Ġpri oritas
Ġgi la
ĠJos Ã©
ĠHi jau
ĠDur yod
Ġmena ikkan
Ġsamb utan
Ġdiw ariskan
ĠNAT O
P aris
Ã Ĺ
as am
Ġmen afsir
ĠK imia
Ġr inci
st ropus
Ġmengh uni
bad at
urut kan
ks ana
Ġkap as
Ġ9 7
Ġkeb etulan
Ġob sc
Ġdic ari
unt ah
Ġpenc etak
har sius
ĠBo ok
Ġint elijen
ĠCar ter
ester ol
Sek arang
Ġir isan
ĠSuk abumi
ĠCa bang
ĠChrist opher
Ġkuant itas
yaw arah
L aphria
Ġm onster
ĠS kan
ĠB M
Ġmeng erti
Ġba ca
ĠR ot
ay ah
ĠAn a
th al
Ġseperti ga
gu el
ha e
Ġap ic
Ġar wah
Ġ7 7
ĠKar o
ĠSt and
Ġrek omendasi
Ġfinal is
Ġus ulan
Ġveg et
D ok
K az
Ù ĳ
er un
at ta
as sa
ĠA ditya
ek asan
ĠC u
las an
ĠAm b
ĠUn der
emba ban
Ġseri bu
ĠâĢ ¢
Ġberkembang nya
ĠCon n
ĠFor um
Ġbant alan
Ġmembant unya
ĠArs enal
Ġamun isi
N an
O L
k am
p ak
Ġb uang
Ġt ul
ĠM Ã©
im eter
Ġf ib
ĠR ic
Ġc ont
ĠH is
ĠW ell
ĠPer c
âĢ ĺ
tor y
Ġjar ing
Ġmet eor
Ġkat alog
ĠHid angan
Ġpenyer apan
empurn akan
U I
W akil
k tika
Ġm ong
Ġt asikmalaya
ĠD y
Ġmeng olah
Ġf ungi
Ġg ilir
Ġn irk
Ġdik isahkan
ew u
Ġ9 6
Ġmengan jurkan
yan ti
ser ing
Ma ch
Ġpros esi
ÅĤ aw
hyn chus
W est
m eskipun
o ga
s son
u ja
Ġ ela
er en
in ensis
Ġp ale
tu ag
ĠP ho
ĠB uk
ĠT urnamen
ĠC C
ĠH amb
end angan
se x
Ġpeny embuhan
Ġpemb icara
Ġterk ejut
ĠCom ics
Ġprop osal
Ġmenju arai
Ġkelahir annya
K R
P lay
v iv
Ġb anding
ĠP ul
gi z
ĠB unda
Ġl ic
Ġg on
Ġba yaran
ĠG len
ĠMer deka
titu en
ĠPi us
Ġtab let
essi ca
Ã©n Ã©
Ġmengant arkan
B an
L ahir
k isah
si ar
Ġdi wajibkan
ĠK ulit
ĠB ond
ĠC ak
ĠC ik
Ġn ame
pat ib
ĠE ug
eta an
tiv isme
av an
Ġterp apar
Ġinf luenza
Ġtersi mpan
ropol is
kas us
Ġeksperim ental
Ġmenyumbang kan
Ked ua
A H
H ist
l id
r ong
t am
Ã ²
Ġdi ungkapkan
Ġdi gerakkan
um ulasi
ek o
ek ly
Ġpen afsiran
ĠL un
Ġpeng ec
ist ika
he el
asil ika
ĠCh arl
Ġ6 9
ĠTer it
visi on
Ġsul fur
Ġdel egasi
ĠGrand e
Ġkong res
Ġberak ibat
Ġsulf ida
Ġgilir annya
h ara
Ġp anggang
Ġdi are
ya san
ĠS udi
ĠP engg
eg en
ĠH ugh
Ġkem iringan
Ġpur w
epend ent
CC C
Ġaku isisi
asci atus
Ġpe doman
ĠRasul ullah
Pener imaan
Ġpengeb om
oplas ma
B ila
N un
P ari
v ed
Ã ¯
Ġ one
Ġp ah
Ġl ove
ĠW it
han an
ĠPer angkat
ea ch
Ġmel ompat
eks asi
unc il
hi as
Ġ18 00
entu re
Ġperm ata
Ġproses or
ck ena
lo gi
arn asi
Ġmengk onfirmasi
ĠHo ok
Ġpul ih
Ġdias osiasikan
Ġhorm at
ĠPlay Station
à¥ į
Ist ana
ĠLuth eran
Ġdikab arkan
B or
D aniel
S anta
c s
l arasikan
p ela
u v
Ġb lu
Ġter oris
ĠK ucing
ĠT y
Ġla da
Ġpen ekanan
usi kan
ent asan
ic araan
ĠMar inir
oy an
our s
Ġdiba yar
ĠThe odo
ĠSal eh
Ġkekuatan nya
iaya i
Ġspesi al
ight s
Ph ilip
Ġfilosof is
Ġmari tim
Ġhat inya
c ang
c over
e ur
h ami
Ġ anj
Ġp iring
ĠS ug
ĠC ro
Ġmel ukis
eks ualitas
yl ind
Ġperb elanjaan
Ġmemas ok
har jo
Ġbe asiswa
Ġhektar e
ĠArk tik
Ġpingg ang
Gol den
j eksi
p le
Ġs anksi
Ġt at
do sa
ĠL ast
ĠF eng
ĠF uku
amb an
Ġkar antina
Ġkes us
ĠTer akhir
Ġ7 3
ron ia
Ġet n
its ub
ym n
Ġdu o
ĠDam askus
Ġmant ra
Ġinisi atif
C andi
j k
Ġdi aku
us atkan
el and
ĠB uda
Ġmeng embang
ĠH uman
ingk ir
gu y
Ġ188 1
kl ub
Ġsimp an
Tan aman
Ġekonom is
Ġnaf su
Ġgai b
ĠDuryod ana
F orm
J a
Ġ ubi
Ġdi ti
or es
Ġmen aruh
ĠA M
ut y
ĠM ungkin
ĠM ini
ĠB ey
et y
Ġr adang
Ġpeng awas
eber angan
end ara
Ġmengh ukum
ron e
Ġst at
ĠHar apan
Ġterm odinamika
ĠPemb ebasan
dim ensi
ĠFir st
ĠHok kaido
Ġjuni or
Pras asti
D am
j ub
Ġ ogan
Ġm asanya
ik kh
ĠB es
Ġr eferendum
ĠH ell
ĠV ic
hir a
ori us
Ġar ca
ĠSt alin
Ġkur ikulum
ese orang
ĠSat elit
Co unty
Kont roversi
R NA
j elang
w ir
Ġ ambil
ar angan
Ġt ong
si as
di f
Ġmen amai
ĠM ut
Ġf aksi
ata i
Ġr incian
ĠJ ason
Ġbi lah
eri fikasi
Ġmel estarikan
ĠV ar
Ġberk e
Ġberk isah
Ġmend uga
Ġdin amika
ĠX X
eman n
ĠSy arif
ĠBen edik
ĠEm irat
ĠSC TV
B ol
T ab
h as
m ela
y t
in ata
at her
Ġmen un
ĠA pa
ĠG ang
Ġbi ola
Ġas as
to ch
Ġperm en
Pen emuan
Ġberm aksud
ĠSal omo
Ġfisik awan
akh ta
ĠBah Ã¡
Ġmengej utkan
Ġadi pati
otomi us
ĠEti opia
S anto
v as
en na
un ta
am orf
or al
ur os
ĠT w
Ġmeng ira
Ġf ran
eh ida
ch ester
ĠF ah
ana o
ĠU jung
th el
ĠW uhan
re z
ĠAp likasi
Ġdic uri
eral d
ĠKat egori
sat ria
Ã¢ t
orb anan
tuag inta
V a
Ġk laten
Ġb atin
Ġter isolasi
ĠM eg
ĠB endera
ĠT itik
ri ff
ep it
ra j
op hanus
ĠG ejala
Ġser entak
ĠW ak
Ġal tar
Ġpas ta
ĠPeng guna
war man
ĠPal u
Ġsuk abumi
Ġli gan
Ġrep utasi
Pr insip
Ġmenda ftarkan
Sd n
Ġkaf e
itsub ishi
" &
D il
h ok
ĠA ichi
ĠP it
ba wah
gi mon
Ġ1 17
ĠG ur
ĠV el
ĠCh urch
ha usen
Per m
Ġres er
sch ap
amil ton
odo h
ĠRah man
ĠMargar et
9 00
C r
b ukti
t it
Ġp neum
Ġk akao
ĠB ros
ĠJ as
ĠJ ordan
ab ilis
ud er
Ġgen erator
ont ar
Ġseh ubungan
ĠKe adaan
Ġdil angsungkan
Ġpers onal
ĠSp ir
Ġoksi d
eni us
Ber batasan
Ġpraktik nya
Ġdian ut
ĠRos e
emuda han
Ġget aran
P u
R atu
b unga
h anya
w oo
Ġs ent
Ġber ikatan
Ġmen elan
ro mium
Ġf atal
ĠH eb
ĠV ul
man usia
Ġpemb antaian
aksi kan
ĠPr insip
Ġel ang
ondon g
apt isan
Ġdilam bangkan
c raft
j al
an ea
Ġs antri
ĠS U
ĠS esuai
ĠM organ
Ġmem ajukan
Ġg al
Ġg anj
Ġpen etapan
ula s
ot hy
ĠY in
li ga
Ġal ga
ev aluasi
ou x
Ġeks ekusi
ĠBat ara
à¤ ¾
ĠArt inya
Ġpir ingan
app y
1 20
C ast
D u
j et
k elas
in en
ek e
ro d
ul aran
eh at
inc ta
Ġkeb encian
Peng aruh
Ar sitektur
Ġpri bad
ass o
ĠKun ing
Ġprim itif
ĠCon c
Ġberla pis
ĠBill y
ĠBern ard
Ġberdiam eter
C ur
D S
G el
H yp
p ang
r iller
u ver
Ø ¹
Ġt umpang
ada s
Ġh op
ber s
ĠE up
ist s
Ġan tim
Ġberb ulu
ĠMar vel
Ġ6 7
Ġpengh apusan
ĠKh alifah
ĠAt om
Ġbel anja
Ġpot ong
Ġmo tivasi
Ġ188 3
Ġmag elang
Ġtengg orokan
ikon duktor
oceph ala
ĠPerl indungan
L at
R as
s etelah
Ġdi ikat
ĠS AR
ĠP ura
ĠP rab
ro to
ul si
Ġl ebat
Ġun juk
ĠH ij
Ġmel ukai
Ġpr ek
Ġmusi c
enc ia
Ġhari mau
ĠTer p
Ġalam iah
Ġart efak
resi k
Ġemb rio
Ġran ah
K RI
M asalah
U m
W ol
b ama
r ug
in tus
Ġs te
Ġber in
ĠP od
ĠK ritik
Ġg ela
Ġmemp rediksi
Ġterk esan
ĠSh er
Ġpel engkap
Ġmet rik
Ġ' ,
gn osis
Ġ189 3
ĠMor ris
ĠOs car
ĠPop ulasi
Alex ander
Brit ania
ĠAntiokh ia
B uah
å Ń
ĠS to
Ġke as
eh ab
Ġpen omoran
Ġpeng umuman
Ġsen ar
eri or
Ġ14 0
Ġep arki
egori us
daya an
Ġir ama
kos aan
Ġsupern ova
g ensi
å ħ
ar inya
in ental
ti pennis
Ġ" -
Ġh is
ĠF un
Ġw i
Ġsek te
ĠZ hao
ĠAng lo
Ġib lis
ĠInd eks
Ġstatus nya
ĠJos eon
Ġreli ef
Ġkrom at
low akia
Ġaja ib
Ġpribad inya
m ak
Ġ ì
Ġm asif
ah abat
ĠS entral
ĠA gr
Ġr angkap
Ġpeng ucapan
ori es
Ġar ahan
gen es
Ġtert angkap
Al eks
Ġpenggun anya
Ġdep annya
Ġkas et
Po aceae
Ġ187 1
Ġberganti an
Ġten u
Ġmendatang kan
f ir
o ik
s che
la yout
us inya
ala yak
ĠT aw
Ġpen embakan
ĠR ute
ĠR iset
op idae
Ġker acunan
od en
han akan
Ġdik ombinasikan
Ġya yasan
Ġkel anjutan
Ġdia baikan
Ġku ala
all us
Ġperan ti
Ġditempat i
fur t
Ġpay udara
Ġpus aka
buda kan
ĠBagh dad
T ah
Ġt ingkah
si i
Ġke emasan
ĠT in
ĠT ian
ĠJ ember
ok et
Ġbi okimia
og ne
lat or
Ġkes etiaan
Per jalanan
Ġ7 4
ĠX VI
ĠOr de
sik ologi
Ġproduk sinya
Ġbin ti
ser vasi
anti asa
ĠÃ ģ
Ġperp aduan
Ada pun
oman do
Ã´ ne
ĠBak er
lit erasi
Ġpengisi an
ĠChar lie
ĠRena isans
ĠYuda isme
B ir
G ir
K ami
V erm
Ġs on
Ġk anak
ol n
Ġmem uncak
Ġr h
ĠH and
Ġmeny andang
ĠAn war
th ur
Ġmengh idupkan
Ġtim e
ell idae
gen s
Ġ8 3
Ġ16 0
13 0
Ġhak ikat
Ã¶ n
Ġleg al
Ġmenganggap nya
aph uma
ĠBal tik
ĠUS A
Ġmenyeber angi
ahb iskan
P urn
q a
er ation
Ġdi angkut
do v
Ġper dan
ĠM C
ĠT ag
eta apian
angg anya
Ġmemb el
Ġtempat nya
ĠDi ego
Per an
Ch lorophorus
astra an
ĠGunung kidul
Ġmatematika wan
Ġmedi tasi
ĠBoh emia
Ġsandi wara
H S
S tudi
r ec
en tif
ĠK arier
Ġj erman
ĠB art
ĠB omb
ĠJ at
ch eng
gun an
omp okan
Ġkali ber
ef a
ĠIs h
Ġmemper ebutkan
Ġsp ora
Ġmenj anjikan
lin ois
Ġtujuan nya
yam uk
ĠPark er
ĠSab ah
Ġkej atuhan
integrasi kan
Hab itat
h utan
Ġ ejaan
Ġd w
Ġd ina
Ġk ay
Ġb endungan
ĠD ona
Ġ1 14
ĠL egis
os ongan
Ġkon den
ĠZ e
angs ur
mar hum
Ġkam us
Ġmerek rut
uas in
Ġkeker abatan
Ġmengu tuk
Franc e
Ġdisek itar
Ġvag ina
J akarta
w ono
ar sus
eng aran
ĠP osisi
up ser
tr aksi
Ġmeny oroti
ĠU ru
Ġan umerta
Ġkem itraan
Ġdiper lakukan
Ġpol itis
ĠTer kadang
An alisis
we et
sim bol
Ġing atan
Ġrup iah
B ob
H F
K ir
m obil
in stein
Ġp andai
Ġb intik
al onia
ga d
ak ala
ap on
Ġh amba
Ġmeng alihkan
Ġf luk
Ġg il
Ġuntuk nya
Ġn ab
ĠAl iran
Ġtim nya
ĠPro to
ĠSa id
omb ok
ungg ang
oli um
Ġbel erang
Ġungg as
ben ua
Ġpolin omial
H I
L U
N ep
Ġ %
Ġs ian
is y
di dik
ĠM ot
ĠL ittle
ĠR ussell
eg er
Ġdis amakan
Ġdip utuskan
ĠCh ild
isti rahat
Ġins tan
Pem ain
Ak ademi
ĠBang gai
Kom isi
ĠAntar ktika
ĠAlas ka
Ins titut
Ġkapital isme
B u
Ġp ahit
di i
Ġter ti
Ġper alihan
ĠK anton
ĠD apat
per ang
ĠW ild
od erm
ĠO gan
Ã© s
Ġen ak
ros kopi
wak il
Ġhid r
arg o
Ġdisi mp
Ġim i
ĠBl itar
Ġfunda mental
Ġperdan anya
" '
L im
M ata
c ell
k ing
Ġ 00
Ġ ukur
Ġ ilir
Ġk utipan
wa gen
ĠG yeong
ed aran
ag oras
Ġsen antiasa
emp ut
Ġ18 60
Ġmember lakukan
Ġbulan an
Ġen er
Ġmat anya
ĠSula iman
Ġsim etris
ĠHi ros
ĠKas us
alak si
á¹ £
Ġtor pedo
B ilangan
S eluruh
V ik
l ori
s emen
à ¹
Ġber akar
ĠK RL
Ġmeng gi
eh kan
ĠR eich
ĠH eter
Ġmeny es
Ġser p
ĠTer tinggi
Ġ8 1
Ġmat ematis
son o
tic ollis
Ġkan on
ewa yangan
Ð¸ Ñ
Ol eh
Hen ry
Ġimb alan
Ġeuk ari
Ġwarn anya
M ol
P atri
S R
h on
s pesies
w id
Ġd ebat
ĠP ek
Ġn arasi
ĠL amb
ĠL ituania
isi s
ĠIns tagram
Ġdis ambut
Ġkel inci
ĠAs tr
Ġkal k
Ġsuk sesi
ĠCom munic
ĠJo urnal
Ġkos akata
ĠWes tern
Ġpenyang ga
f ul
Ġt ril
da i
ĠP ublic
gi gi
ay am
angk is
Ġv ul
etap a
Ġmemper s
Ġpemb aruan
ell ite
An astr
Ġmenj angkau
Ch en
Ġte olog
Ġka u
unt ung
ĠBr us
Ġim aj
Ġhadi ts
198 9
eder hanakan
semb urg
Ġpenyi ar
ĠGad ing
Ġfac to
Ġlini er
E E
] .
r aksi
ĠS eng
ĠP P
ĠD ak
ĠD ja
Ġpen empatan
Ġc ras
amp ungan
ed an
int asan
Ġmela cak
Ġan eka
Ġsem ut
Ġman uskrip
ĠKa uk
ĠBi ro
Ġemp iris
Ġgam elan
elektr ik
Ġmemf asilitasi
B ig
F re
Ġd pl
ang in
in f
Ġb alon
or do
ĠS aham
Ġter kuat
ĠM oto
Ġmem ancarkan
Ġju bah
ĠR hein
Ġmeny utradarai
ev en
Ġket ebalan
ju angkan
enda la
Ġterp utus
ey er
Ġdic etuskan
ĠDem ak
yr ia
ĠAb bas
Ġinter val
Ġben z
Sel anjutnya
Ġnom inal
ĠTurk men
ĠKeber adaan
K ot
N ag
b h
Ġke y
Ġmen utur
ob el
ki el
Ġmil iki
asar jana
utrad araan
au x
ĠRa chel
Ba gi
ihan na
ĠEng lish
Pas ukan
Ġakun tansi
ĠPu erto
Ġari t
Ġsubt ropis
Ġlonc eng
S P
j olan
y uan
Ġt iri
Ġse imbang
is nis
el ompokan
ĠB it
esi t
ĠT ob
ĠT rib
ĠN ev
ĠF uj
ili an
ea vy
ĠIs ma
asar ana
ĠEn er
ĠBa gaimanapun
ĠSam sung
ĠCa esar
Pers amaan
bab we
ĠMek kah
Ġjaj ahan
Ġmenab rak
D onald
I mp
f on
Ġb rom
il et
Ġke jam
ĠD un
Ġr evisi
ĠN uh
ok in
os fat
amb ul
Ġak ustik
Ġmengh ibur
Ġad v
Ġsin ema
ĠSin ar
Ġkebi j
Ã¤ r
Ġklor in
ĠKamp anye
ĠHat ta
Ġmenafsir kan
P adang
p usat
en ze
al inan
ĠK rim
ĠD own
ĠC av
ĠN er
ida s
Ġc agar
li er
Ġkep iting
of on
Ġsem ikonduktor
Ġkes atria
Ġkel embaban
isti lah
ĠPr ia
ĠPr ime
let ser
ĠGor don
ĠShi eld
ĠBh utan
ĠMont enegro
ĠFir man
Ik lim
ĠOtt oman
K asus
h ui
z burg
Ġb ec
ĠA BC
it aman
Ġmer a
Ġpem andu
Ġker agaman
imp ahan
tas inya
ron a
aks ana
Ġsedikit nya
Ġterc apai
Ġmon cong
Ġ188 7
Ġintern ational
arut kan
Ġlip id
ĠDel ta
ĠPhilip pe
Ġrap per
ĠWah yu
ĠQue en
ĠMarsh all
b idang
d rama
ang u
el eng
it su
Ġj ingga
ĠM ara
ĠI man
ul es
ĠD ragon
bu la
ec hi
ĠU SD
ĠW as
Ġberk ulit
ug erahkan
Ġmemper mudah
ĠSa chsen
Ġkeb esaran
Ke tua
Ġjam bu
ĠMah araja
ĠEl ectric
ĠKam erun
Ġperp ecahan
ĠKur si
Ġpengganti an
ĠMem iliki
Ġberkurang nya
Ġalum ni
Ġperson il
icro tipula
ĠSamar inda
Ġpuk ulan
entur y
A frika
K egiatan
L en
P arat
x is
ĠS embilan
ĠD har
ĠL ub
ĠR ika
ĠG om
ent ro
ĠO ver
ard jo
hi e
ita an
ĠDip onegoro
Ġat ribut
Ġlahir nya
Ġ188 2
Ġberc ak
ĠKris h
ĠRec ord
Ġelektro de
ĠGol kar
Ġbangk u
ĠDok ter
geme ente
×Ļ ×
Ġdram atis
K ekaisaran
T rup
b ow
t osa
Ġp la
Ġk us
or tasi
ak al
Ġmen ump
Ġmen amakan
eb i
Ġ" ",
ĠT omat
Ġr it
ĠH AM
ch al
Ġmel odi
ĠSela sa
Ġpend inginan
Ġbers umber
Ġfilm nya
Ġterb entang
Ġek u
Ġel eg
ĠTh om
ĠDa eng
Pro machus
Ġis olasi
ph ora
Ġim peri
ĠÃ Ĩ
alo gi
los sa
onoch amus
f l
r el
Ġp ing
Ġk avaleri
am ed
el ine
ĠK rist
ĠG em
ula tum
Ġbi as
ĠW el
li on
ĠAm an
emp heria
Ġbers umpah
Ġpeny atuan
Ġ8 2
ĠSep tuaginta
Ġ12 5
Ġger ilya
Ġ188 8
Ġpembuatan nya
Ġberda ulat
Ġimi grasi
N ilai
k ecil
o tida
t om
er on
en stein
ĠP ati
atu a
ec ia
Ġmeny iarkan
ac arita
engg elam
ph ia
Ġcer pen
ĠMi ya
Ġbat uk
Ku il
yad h
Ġinform al
ĠNum for
Trup anea
D M
E f
K in
k emudian
Ġd ur
Ġm angan
Ġm alu
Ġt rib
Ġdi ga
ĠM ori
ĠG raf
ĠG ambar
ĠF eder
ĠF iraun
Ġgen c
Ġsen timeter
Ġdis ini
Ġlu c
pen ulis
endali an
Ġib n
ĠIl linois
ĠLu wu
Ġ187 8
Ã¤ n
htt p
C os
P asi
S et
g ua
Ġk antung
es per
um ent
Ġber i
eb ing
Ġba waan
Ġn ov
ĠE arth
ati o
Ġpemb icaraan
Ġnasional isme
Ġup eti
Ġperc etakan
ĠBen jamin
ĠÎ ²
ĠRos s
ĠØ ¨
Ġakadem is
perim en
Ġmenembak kan
Ġout put
Ġjan in
B enteng
d le
y d
Ġs engketa
tu juh
Ġmen etas
ut ta
Ġh ome
ĠC ul
Ġr ingk
ali p
ma ga
Ġdip icu
Ġbert ema
Ġmemper sembahkan
Ġpemb inaan
inc e
Ġdid ik
ez kiel
iti us
sek al
Ġ189 1
erang i
Ġmay or
ĠMotor s
Ġtar ekat
andard isasi
ĠPac ific
Ġmanda iling
Ġmangk uk
ograp hy
upser ha
R ute
p ad
Ġp amannya
ĠS pesi
ĠS ime
ĠK ok
ĠK ub
ĠK iai
ĠI ch
Ġpeng kh
Ġmel anda
Ġkel iru
Ġro s
unt ingan
br ia
iti on
sir kan
Ġ187 9
Ġfot on
Ġsimp ang
Ġsiap apun
Ġpip ih
Ġmendatang i
GB T
Ġdiaku isisi
Ġmenutur kan
B rach
G ejala
M isi
h ay
v ing
z yn
Ġs alam
Ġk ib
ĠA dolf
ĠP uri
ap o
Ġper oksida
Ġper undingan
ro sis
ĠN eptunus
ch n
ĠV irus
aja annya
Ġkata i
Ġbatu bara
Ġsi doarjo
ĠEn de
ĠSal vador
ĠSen ator
ĠInd y
ĠPar oki
Ġterj ebak
Se iring
ĠKek uatan
ĠGar uda
Ġkub uran
Ġdipen jara
ĠLetak nya
ĠLud wig
Ġgenc atan
M uara
S hi
Ġd ub
in ari
ĠS ey
el emen
Ġmem ancing
ĠB ran
Ġr eduksi
ĠJ ump
ĠH uta
ĠF ul
tor s
Ġag ensi
Ġberp akaian
Ġkh alayak
ĠMa ul
Ġins talasi
eor ema
ral tar
Bup rest
ĠKem ungkinan
ene wa
Ġrekan nya
ĠAnth rax
Ġdinik mati
L ang
W ang
Ġ etim
Ġs ungguh
Ġk emudahan
Ġb olak
kan ya
il kan
or ata
ĠS L
is er
ĠP andu
ĠM ess
Ġoleh nya
id u
ila p
Ġv ampir
ĠCh ong
Ġpend engar
enda ki
Ġpemb elahan
ĠUni verse
Ġlok asinya
kar akter
ephrit is
lang it
Ġinves tigasi
Ġfem inis
ĠJohan n
gani zation
G ood
h em
j Åį
p artai
Ġba jak
Ġba ginya
ok at
ay yah
ĠF erdinand
angk ung
Ġv it
end e
af iliasi
ĠSeb anyak
ĠSM K
Peng enalan
ĠMan ila
ĠAb basi
Ġpred iksi
Ġmul tin
Ġion ik
Ġ187 2
ĠBro thers
onan si
Ġden ominasi
ĠFred erick
rob ogan
ĠJama ika
Ġdisimp ulkan
F ormat
S ha
U pacara
f re
t ori
Ï Ĩ
at re
Ġmeng epung
bu dur
Ġba it
ĠJ ami
ilm uan
". "
Ġberk ap
ki i
ologi cal
Ġbert ekanan
ĠZ ul
ĠX ian
ci don
Ġperb uruan
Pem buatan
ĠBi asa
ĠSum eria
Ġsim etri
ĠWi jaya
Ġtimbul nya
Ġpuc uk
Ġprogr esif
K ritik
N ur
T anggal
b andingkan
z ig
an en
ĠP andangan
ĠK eju
ĠB our
ĠB anyuwangi
ĠN BA
Ġc oll
Ġser tifikasi
Ġberk ala
Ġmengh ant
ig ny
Ġdil epas
Ġberj enis
ĠSi am
ĠSi beria
ĠLaw rence
ĠSec ret
It alia
ĠMeri am
Buprest is
T anggapan
b s
Î ²
ã Ģ
Ġp aman
Ġh emat
ĠC our
ĠIn donesian
ĠH eli
ĠF el
amb ungan
ob jek
Ġkh atulistiwa
In do
ĠAc t
Ġkat anya
Ġpet inju
ĠRa o
ĠMad rasah
Ġterda mp
ĠJer sey
mes in
Ah mad
Ġamb isi
sist or
ĠOxy opidae
ĠTb k
H K
I L
Y esus
k ec
Ġm ust
Ġp egangan
Ġt ai
Ġt our
Ġt rik
ĠP ola
ĠK ent
ĠB ela
esi mal
Ġg resik
ĠL av
ad ili
ĠAr my
ĠW or
Ġkem arau
Ġmemp elai
Ġmemp ublikasikan
Ġkon duk
ini i
osa ik
ĠGu y
Ġcer itanya
Ġmag ma
alk ohol
ĠCarol ina
Ġci anjur
ayak umbuh
Maz mur
Ġamf ibi
A dam
D ev
Q ue
R ob
Î ´
Ġm untah
Ġp ekalongan
ol ution
ĠA ki
Ġper adilan
ĠK ompetisi
ĠM iz
Ġh tt
ĠT rich
Ġf in
ĠL ay
Ġc yan
Ġser tifikat
angk itan
omp et
Ġmemb esar
Ġbers ekutu
Ġkem akmuran
ex us
antu an
Ġtrans gender
lin k
hy ti
lor ida
ĠSal im
Ġbeb atuan
Ġanti bodi
Ġmenggantikan nya
esm ian
Ġselam anya
egu bernuran
Ġmengab di
rost ylum
htt ps
ĠHein rich
Ġkov alen
ikkh u
b ana
æ ľ
si gn
or bit
ĠK arna
ĠB ox
Ġc he
Ġc akupan
ĠF land
Ġw o
Ġpeng unduran
Ġmemb uruk
ell etta
Ġ8 4
ĠPr im
Ġmend istribusikan
Al lah
rat on
ĠâĢ Ŀ
omat ia
ĠMo ore
ÃŃ simo
Ġbarang ay
ĠDen pasar
Ġpenda ftaran
ĠAlex andria
Ġpari t
Ġmemberit ah
Ġent ri
ĠIA IN
Ġobli gasi
ĠYer emia
S ig
si tus
tu an
ga an
gi r
ĠB A
ĠN in
ĠG uj
ali on
sa wa
ĠO hio
se i
Ġsp asi
tiv ar
Ġditemukan nya
Ġ0 6
dis emen
Ġmengg ambar
Ġsin onim
eni x
olak a
put ih
Ġpenda mping
Ġtet angganya
hat tan
Peny ebaran
ĠIndo siar
ĠTujuan nya
Ġmenu ai
Ġfluor ida
ĠFis her
ĠGreg ory
emai os
E G
J on
k ha
p ic
la x
up ta
ĠN okia
Ġpem bangun
Ġpeng angg
ĠAn as
ks anaan
yl on
Ġmendapat i
mp u
Ġproduk nya
ĠSe attle
ĠPut eri
mm ata
ĠPri badi
ĠTrans formers
ĠPl uto
ĠJim my
Pap irus
Ġmembant ah
serv atorium
I K
K risten
P engg
S L
S av
V A
p ot
Ġd sb
la w
Ġb int
tu ri
ĠS TA
us u
Ġh epat
ĠR up
ec tive
Ġv eteran
le v
Ġbers uara
Ġkes eb
tas e
lan k
anc y
ton ik
ĠKash mir
Ġmempercaya i
M agn
S eg
l um
Ġm abuk
Ġber awak
Ġj asanya
ĠB ukti
Ġmer ata
ra gen
os k
Ġpeng orbanan
angg anan
tan ce
Ġ3 60
Ġsamp ingan
Ġhar ganya
Ġmil enium
ĠMa gazine
Ã¼ l
Ġpengaruh nya
Ġlip atan
Ġkosm etik
ĠHerak les
ĠMex ico
Ġmemberitah ukan
B atalyon
ĠP egawai
ba sis
ĠB ukan
ul ikan
Ġmeng erikan
ĠJ asa
ĠL ow
Ġc ip
ĠH uruf
Ġpem angsa
ula k
Ġpeng undian
ed erhana
Ġsen di
na f
Ġsel ektif
pa ida
rom o
ou ver
ora do
tab el
Ġhid ra
Ġgi g
ĠSw ift
Ġpenj umlahan
Ġala bama
Ġes ensial
Ġmempert anyakan
Ġtab rakan
ĠMc C
Ġboj onegoro
A ri
H A
P aram
W ah
e ar
k ati
v entris
y aman
en zo
do u
Ġse saat
ing ungan
ĠB ha
ĠC il
ĠH un
ĠH amilton
Ġbi f
ob os
ĠAm in
eda kannya
ĠCh ung
Ġdim in
Ġpeny u
Ġpeny ediaan
umen ep
lor um
Ġterc epat
Ġstr eaming
ĠCar r
Ġsus pensi
ĠAug ust
Ġsumbang an
ewar ganegaraan
Anastr epha
Ġberkap asitas
F itur
g ne
h ilang
s eh
ĠM Ã¼n
ĠB akar
Ġmeng endarai
Ġr ab
ĠN ing
ĠR ektor
op ard
ok sin
ĠE un
Ġbi o
Ġker ajaannya
ĠO toritas
Ġant ik
Ġdip opulerkan
hi dip
Ġkomp resi
eti a
Ġres in
edi han
omb ong
Ġdic abut
imb ar
Ġpermukaan nya
orn ing
ĠIl m
jem ah
ĠKem ampuan
ĠPasi r
Ġsamb ungan
Ġtin dih
Ġneur on
ĠAlas an
Ġbengk ulu
ols pan
Ġbersik ap
B et
C as
k reis
z io
ĠS usi
ol io
Ġf inis
Ġf ondasi
Ġ2 12
ĠJ urnal
ud ar
Ġkel elawar
Ġek stra
Ġ9 1
oksi dan
Ġ0 7
Ġgel ang
Ġpenc itraan
mat ik
ĠHam id
Ġsimp ul
ĠBut on
wujud an
ness et
ĠPanc asila
dÃ© partement
osong kan
ococ cus
hidip pus
E c
P embangunan
S emen
n ormal
s erta
á ĥ
Ġs ilat
am alkan
ti lasi
Ġmem angsa
Ġmem ikirkan
ĠB ed
Ġr ing
tasi s
eda m
ump a
Per angkat
ĠZ o
Ġ- -
Ġmemberikan nya
ega kan
Ġberat nya
ĠEl ektr
ĠCo uncil
Ġbala san
elap ak
Myr marachne
Ġhip ok
ĠPo int
Ġsam udera
ĠGeneral ÃŃsimo
ĠAngk asa
Ġindra giri
ĠHow ard
Ġner aka
Ġbub ar
Dol ich
D ich
J e
S ul
at wa
ek ukan
Ġj ama
ac o
19 80
Ġair lines
Ġpol os
Ġjenis nya
ark tik
ĠAs al
Ġop ini
Ġch art
Ġpat roli
Ġes ter
Ġprak tisi
Ġgug atan
ĠBad en
Ġmena yangkan
ĠCek os
ĠStev en
Ġsuf ragan
Ġkebij aksanaan
J adwal
] ,
c ip
f ri
k ak
l etik
Ġm un
Ġk uku
ĠP ON
ap olis
Ġmem erangi
Ġba y
Ġpen embak
Ġpem otongan
ch ange
Ġpro tagonis
int in
ej ar
oc os
art e
ĠBar on
Ġap alagi
ĠQ ur
akar ya
ĠJuli us
ĠSeba gaimana
Ag romyza
Ġketidak p
Ã± a
Ġran jau
Brit ish
Ġdidalam nya
Cyr t
B umi
L ebih
s ampai
v ik
Ġp ewayangan
ak as
ak ura
Ġter wujud
eb al
Ġba ck
ĠL ahir
id el
end ral
Ġdiper s
su ara
Ġpol ar
Ġro tan
Ġpes anan
ĠSh u
ĠOl d
Ġdid atang
uf t
acam ata
ĠKes enian
oro ugh
omba y
ĠBe ograd
ĠBah rain
ĠÅ ł
ĠAnat olia
Ġketert arikan
K eh
k imia
Ø Ń
Ġ Ùħ
Ġk isi
ĠS ports
Ġke jang
Ġber istirahat
ur s
it arian
Ġper forma
ro ck
ĠT ahap
Ġn eo
op ra
os y
angk as
Ġmel emparkan
Ġdim ilik
Ch ina
aks onomi
Ġpember i
Ġbisnis nya
Ġpul ch
Kon ferensi
Ġâ ĨĴ
Ġov al
tig ma
ĠNun ukan
Ġterit ori
Kamp anye
Ġbik su
Ġnirk abel
O c
R ock
R evolusi
T N
d ewi
ĠP M
ĠM ind
Ġ1 13
Ġf ik
ter o
Ġla tin
Ġn yamuk
ĠL RT
amb utan
ed is
ĠPer ak
est rial
Ġberh ala
ĠAs li
ami ang
Ġmet il
ĠBa ek
Ġrep til
Ep isode
Ġni gr
ĠMag elang
Ġpenya jian
ultur al
Ġekstensi f
Ġpenin dasan
N as
V ir
c in
r akar
s oni
Ġs umat
ĠP aling
ara b
ĠM ai
ĠC ib
Ġla va
ĠR acing
ab ar
ec tus
Ġpem ecahan
ag ne
omp son
Ġsel eb
art ment
bi akan
ĠAir port
Ġbant eng
áº ¡
ĠResi men
! !
G h
P ekerjaan
T s
at tus
Ġdi isolasi
ah il
ĠS usan
ol ine
ĠK ehidupan
ĠD ian
Ġmer okok
op ong
ĠW ong
ew s
Ġkem ih
se ania
Ġpemb entuk
Ġmak ro
Ġsepak bola
Ġrakyat nya
Ġtulis annya
ĠPat ung
ĠBers atu
anag ara
ider es
Hy men
M r
W E
h wa
n ell
p rop
Ġm inta
Ġk atakan
ĠS hir
Ġmen unda
ek alan
Ġ" ".
ĠD ance
Ġ1 16
and e
os ting
Ġpert olongan
ĠAl ice
uc on
Ġkom patib
aka inya
Ġi v
Ġek top
Ġpolitik nya
ĠMei ji
Ġko dok
Ġfor ensik
Ġken y
Ġsimbol is
ĠMark as
ĠSystem s
ĠPart y
fam ili
cas ting
Ġditak lukkan
K ak
f sirkan
p it
p ihak
y ya
Ġ ~
er asan
in jam
Ġh uman
Ġh umor
ant eng
Ġpro bab
lak inya
Ġ8 7
Ġwa y
ĠPert emuan
str ong
omas sa
Ġkesa lah
Ġpenja jah
ĠJohan nes
O h
P esta
T umbuhan
Æ ¡
Ġ ÙĪ
Ġs antan
Ġb uaya
el et
ĠP aku
Ġper undang
Ġh yp
im bangan
ĠR is
ĠR ag
ĠR iver
ĠAn alisis
ĠU NI
oh ong
Ġmenc abut
Ġtra yek
Ġproduk tivitas
Ġkol esterol
oll ar
ĠMon tr
Saint e
bal ingga
ĠOn line
Ġtemp uh
Ġkutu kan
avi er
Ġmengeksp resikan
ĠIskan dar
ĠAbbasi yah
G edung
M arga
M ekanisme
e is
p si
Ñ ĥ
Ġ eg
da le
am m
ĠS ag
um ental
ĠP ub
ek uan
Ġmem adukan
ĠB ulu
ĠB alik
Ġr ugi
ĠJ enewa
ĠL eb
ĠG ali
Ġdis intesis
Ġdip entaskan
Ġkec ap
anda s
Ġpas por
Ġkomp likasi
ĠPr esi
Ġ0 8
Ġseri es
ĠMat t
Ġbala s
ĠFran z
ĠMay oritas
ĠUp aya
Ġaw alan
Ġmengor bankan
Ed ward
Emp is
reh ensif
E u
p artikel
or et
ĠS lam
Ġter orisme
ĠK aw
ĠK nesset
ĠB og
ĠI si
ĠT angga
Ġmer angk
Ġmeng erahkan
ĠR ihanna
Ġpeng in
Ġpeng hancuran
og lob
oda di
ina u
ly s
ĠBel arus
Un sur
ĠKal ender
ĠSed unia
Ġmenempat kannya
ĠVal ley
ĠProf esi
Ġantariksa wan
ĠDag ing
ĠSala tiga
ĠUru guay
D ewa
E F
o ordinasi
p est
Ġmen egakkan
ap arkan
ĠB ec
ĠB atas
Ġh ik
Ġg antung
ĠN O
ra i
ok ondria
ĠF all
Per tumbuhan
Per nikahan
Ġkh al
Ġ9 3
Men ara
Ġer osi
ĠEks pedisi
Ġweb site
amad han
ĠSil ver
ĠDok umen
ĠMalaya lam
Ġkuant itatif
Ġbany umas
Pember ontakan
ĠDrop adi
dina via
Ġdimilik inya
B ulan
R an
ya di
as ut
tu be
ĠS oyuz
Ġf ans
om yc
ep han
ĠR asa
ĠO man
ew akan
Ġ7 9
ĠSh en
ĠSh into
Ġtra g
unt un
ric ot
dus er
esu dah
New s
" |
A ut
C ina
v ana
Ġs urabaya
Ġp alu
Ġb apak
Ġber ambut
ĠA bi
ĠB isa
ri en
ĠJ auh
Ġdit ahbiskan
Ġdik onversi
aran semen
Ġmemb enci
Ġpas tor
Ġar sip
ĠAg ency
inal is
ĠBer kat
ric on
Ġpand eglang
ĠCom te
Ġreg u
ĠYes aya
Ġganj il
M anga
P ala
P ha
P andangan
k ia
m ay
w asan
z ong
Ġ anggapan
Ġt orium
ari ty
Ġber dasar
Ġmen unjang
ĠA le
Ġter ob
ur sor
ĠM ula
Ġf us
ĠR ib
op is
Ġpeng operasi
ob ra
re ad
ka dia
adi ran
Ġpel uncur
Ġanti gen
pro yek
Ġmemu askan
ĠCha o
Fil es
Mala ysia
ĠRog er
Ġbad annya
iladel phia
2 50
E ra
G on
M ulai
N U
N askah
S ans
f el
ĠS N
ĠS uf
ĠA us
ara sit
ĠL ol
ĠL iriomyza
ĠH et
ed r
ĠAr e
ĠW alau
las tik
end araan
Ġberk arier
ola m
Ġbers em
Ġket enaran
Per p
Ġma z
Ġhi pertensi
Kat edral
197 8
Ġdirek omendasikan
ĠFir enze
Pers atuan
ĠPam ekasan
ĠGus ti
F asilitas
K antor
R O
Ġs umba
Ġk n
ĠK ana
ĠK ag
ĠD atuk
Ġl ukis
Ġmeng usung
Ġg eng
Ġn ano
ĠJ um
Ġc all
ĠH idayat
ber ry
Ġdit onton
ĠV isi
to wn
Ġen ter
ĠSh aw
ulit zer
Ar tikel
Ġradi us
che on
En ergi
Ġcor ak
Ġresi du
Ġleb ak
ĠFi ji
ĠUm ayyah
ĠLum ban
M akam
S on
Y eh
Ġ ÏĢ
Ġs id
ot arsus
Ġker um
angg ul
li us
orm on
Ġsel era
ern ame
Ġhal te
Ġkor por
Ġberisi ko
ĠKh al
okasi kan
pro ses
Kon disi
untuk kan
kep ala
ĠRem aja
Camp ig
ĠThor ell
ĠMerc edes
ĠSanti ago
B est
r esidenan
ang ul
in esia
ya an
as em
ĠS ind
ĠS ocial
Ġmen el
ĠP Ã©
Ġmem inum
Ġmem atuhi
Ġmeng inspirasi
Ġr embang
Ġr itel
ud ik
don na
Ġked utaan
hi z
Ġgel andang
Ġri il
ĠSe ine
St atus
resi asi
ĠPh ill
Ġdita fsirkan
Ġberc erai
Kon vensi
ĠBis ma
hev ik
Ġorn amen
okla tan
Ġdihid angkan
ĠUzbek istan
Nep enthes
ĠIlm iah
) )
P ep
r utan
İ le
Ġs kandal
Ġp etak
Ġb one
as yarakatan
Ġse sa
Ġber eks
ĠP ajak
ia c
ĠB aja
ro ch
im as
ĠT ek
Ġl ombok
ĠG l
Ġpeng angkutan
rop s
isa lah
lis ensi
Ġkap uas
ĠUn sur
Ġka idah
ĠÎ ¼
ĠPemb entukan
ĠNag ano
Tur ki
Ġdida ftarkan
omposisi kan
M E
P eserta
S ay
k ont
k elahiran
m ut
s yat
Å Ħ
en os
Ġber aliran
Ġmen anyakan
eb ek
ut onium
Ġper adangan
ĠK yai
Ġpen et
Ġpen andatangan
Ġw angi
ĠE mm
tan pa
ori o
disi plin
Ġjalan nya
Ġmengk lasifikasikan
vi e
ĠEl ectron
à¤ °
Ġpil ar
ĠAsi sten
ĠNag ari
ĠBeng ali
ĠBea ch
Ġkakek nya
K un
p eksi
s alam
Î ¸
Ġd rive
en ko
Ġm ohon
Ġp ower
Ġk ang
do ra
ĠK ant
ti va
ro ugh
ĠD ani
ĠT N
ot eknologi
th yphantes
Ġker aton
Ġak tual
enda p
Ġst roke
lo ad
Ġsup lai
ino e
ĠTel kom
Ġmaj alengka
ĠSc reen
Ġjasa d
Ġkeda i
Ġmikro b
Ġbangk ai
Wal ckena
ĠNich olas
Ġnila inya
opro tein
ĠLegis latif
Campig lossa
. ).
F ort
J u
T uhan
g s
h idup
m ap
eng a
Ġj e
Ġj ombang
im al
Ġl ancar
Ġmeng ungsi
Ġf l
Ġla t
Ġr uncing
ĠE lis
ili o
Ġorang tuanya
uc u
Ġdiper barui
anc ouver
engg ung
Ġlam ongan
Ġpra ja
ĠSah ara
Mari e
A y
N am
P ort
R uang
d ri
n ak
n om
ar es
ar ui
Ġs ant
ĠD enis
Ġl or
ĠG olongan
ĠF ab
Ġberk elompok
Ġpeny esuaian
inc oln
Ġpusat nya
odi ce
ĠMa o
ys us
Ġberper ilaku
Ak tor
Ak ibat
Ġpenguasa an
Ġmar gin
ĠSil va
ĠXi ong
Ġum bi
Ġepis kopal
Bers ama
ĠDona u
ricot opus
R ah
l ea
l uka
s ana
Ġp ura
em ur
ah tera
it ania
it rogen
Ġper ancangan
Ġper edaran
Ġj i
ĠB ou
Ġpen arikan
ĠL ak
ĠR UU
ih a
per m
Ġdiper iksa
Ġpol ip
Ġsat wa
ĠGr egorius
Ġkab in
ĠMad inah
rok lam
ĠWal t
aktif kan
khusus nya
D as
I X
O re
Ġd efisi
la th
Ġt endangan
or ac
ĠS und
us ername
ol ip
ĠP G
ĠD as
ĠD efinisi
Ġkar at
ĠW ur
ĠY uk
Ġkel angsungan
Ġmemper lakukan
Ġpers ebaran
Ġkeb ingungan
Ġtrans kripsi
etu alangan
Ġeng gan
ĠOper a
ĠDub lin
elop ori
Aks ara
ĠGabri el
ĠTomat oes
Walckena eria
B in
H anya
P ekan
d ep
Ġb ed
um ar
ta il
Ġin duksi
ĠK aj
ĠB erita
ro ve
Ġpen entu
Ġpem indahan
th m
ian um
Ġmemb edakannya
ĠPada hal
se in
hi ta
Ġ9 4
ich uan
Ġkeh itaman
Ġkor osi
Ġmelihat nya
vi ew
ĠCo ok
ĠDar ussalam
mis sion
Ġari st
Ġport al
graf i
ĠTaj ik
ĠSkan dinavia
Ġpengangg uran
s m
w ei
y ev
Ġt elapak
ĠS ina
ĠA ji
ĠM arta
im oto
ĠG ul
tan s
Ġdip andu
Ġdip amerkan
ĠCh ad
umbu hkan
Ġdib ungkus
est amp
Ġkons pirasi
ens on
Ġpop ulasinya
Ġind ramayu
endah ara
Ter minal
ĠKem atian
Ġeksp lorasi
Ġpemilik nya
ĠHab sburg
ĠFrank lin
Ġkarb oksi
ĠGib raltar
ĠZim babwe
L ima
Ġd ehid
at ah
Ġdi dih
eng aja
Ġber mas
Ġmen emani
ĠP ulitzer
ek uk
ir man
Ġg lob
Ġn un
ĠL aki
Ġmenc uci
of a
ump ut
Ġpela wak
Ġmenja uh
Ġlingk ar
buhan batu
Ġsekolah nya
ĠSy n
ĠAnd y
ĠTrans portasi
Ġmenda mpingi
Ġnum erik
Ġmerep resentasikan
H ow
J adi
L ok
S E
s ec
at ch
at hi
Ġk ript
am ent
ĠS ent
Ġke tan
Ġter ak
ĠP A
ĠP eg
ĠI D
Ġl edak
Ġr ubah
ĠJ ulian
ĠL ea
op ati
ali ch
os ges
ma ja
Ġv ia
Ġas upan
Ġkec ewa
ses u
isti mewa
bat ros
Pen ampilan
ĠTor aja
ĠCap e
Ġles bian
B ala
J angan
N y
N et
P am
R en
T en
Ġb rit
lah gunaan
Ġke bu
Ġada p
im asi
et sa
Ġr esis
ĠN ow
ĠG erman
ot ika
Ġmeny ewa
Ġkar di
Ġkar nivora
Ġmel intang
Ġan om
emp eng
Ġmengh ubungi
Ġkes aksian
Ġlu tut
qu in
ji zat
tim estamp
Ġkur ung
Ġolah an
Ġbala i
ĠHol land
ĠPin ang
omet opus
Ġmengec am
ĠBund es
Ġpemut aran
ĠMyc omya
Ġpenyus unan
Ġlans kap
zyn ski
C ycl
G as
G ra
G elar
P asal
S yn
Y on
r uang
Ġ eter
Ġd angdut
er cayaan
ah kota
do ro
ĠS ebab
us uma
Ġmen impa
ap el
up unya
ĠB arisan
ĠD ou
ĠT embok
Ġmeng ag
ĠR ang
ad h
Ġpeng awal
ca bangan
Ġkl inik
ith uan
Ġrela tivitas
ĠEur asia
ĠAf ro
Bi asanya
log am
Ġfot osintesis
Ġdihar gai
ĠSec ur
Sten opogon
oter api
cont ributor
G ame
f ace
l ung
t ario
y im
Ð ´
Ġin dia
ĠA w
ĠP hy
ĠK ron
Ġj us
ĠD I
ĠT ank
Ġmeng utamakan
of en
Ġkem ah
Ġkom ent
ĠIs hak
Ġput ar
Per dana
ĠDip l
Ġharus lah
dan ai
dor ra
emi x
ĠBi ji
ĠEd uc
ĠBen ua
mark et
Ġmenyimp ang
ontr ak
ĠSemen jak
Ġpemer kosaan
Ġtump ukan
Ġnag ari
enj angan
Ġjah e
C han
G eo
H om
M ec
T emp
b urn
Ġp utusan
un angan
Ġter f
ut es
ĠP le
ĠB arang
ĠT arian
Ġn orm
Ġpen dahulu
ĠR ow
ĠF ire
Ġsen dirinya
Ġdip rediksi
Ġdiper untukkan
Ġkel ih
Ġkas ta
Ġam bang
Ġep ik
Ġmo jokerto
ĠZh eng
Ġsim ulasi
odo logi
erm is
ĠPla za
Ġmemin im
Hong aria
Disk ografi
Æ °
en ergi
ar utan
Ġk okoh
ta c
up kan
Ġper on
ĠB elas
ĠD ark
Ġmer angsang
Ġr aksa
Ġn ip
ĠH arian
Ġkon ver
ĠAg ar
ell ing
ĠTi ap
teri um
ĠPr am
Ġ10 5
tab le
rat h
ulus an
ĠMat thew
Ġrek onstruksi
Ġinf lasi
Ger on
ĠPaul o
ĠAug ustus
ĠLuk semburg
Ġmengur aikan
Ant ara
A th
E bur
F akultas
z ol
Ġ yu
Ġber lalu
ut sal
up e
Ġh utang
ĠN uklir
amp akan
ub in
ed en
Ġterl arang
Ġdim inum
ĠBar n
rit ic
ton i
Al kitab
Ġmu al
sek ali
ĠAz iz
ĠKomun e
ĠOb ama
Ġbr un
Hid angan
sto echus
A ug
P ena
T entara
g ei
p enc
r eng
s ep
Ġb ing
Ġt aksi
Ġdi danai
ĠS ei
Ġber lian
Ġmen umbuhkan
ĠP urn
ap is
Ġmem o
Ġ( '
ĠH ik
ĠG ian
amp as
angs angan
ĠPen ampilan
Ġel ips
engk ar
ĠSep uluh
ĠBer at
ulasi kan
fr am
Ġkor ea
ĠGu yana
Ġkimia wan
Ġmengk onsumsi
ĠSin etron
vi olet
Ġtep ian
Ġ187 3
Ġdihar uskan
Ġpensi unan
ĠKul on
enggal ek
ĠBoro budur
H omo
T ephritis
b olik
g art
q ing
r uk
t oko
Ġ ox
Ġp onorogo
ada fi
es y
ut en
ĠP idana
ĠK ei
ĠB ilangan
ro x
ro mi
Ġpen ump
ĠL Ã©
ĠL intas
ot ot
Ġmel empar
ĠV ill
fer ence
Ġdid ek
ver y
Ġins tansi
ĠGer bang
pert inya
ĠYud ea
Mang ora
Ġdiap likasikan
ĠKemen angan
ĠPyth agoras
DPR D
Mach imus
B h
s ak
Ġd efin
Ġm ei
Ġp agan
Ġber iman
gi on
ĠN eb
Ġc har
ĠH ana
od elan
Ġberb anding
Ġ4 50
Ġga lai
Ġku art
Ġdic irikan
eral isasi
ema il
tic o
ĠDa ily
ĠEx oprosopa
ĠMont e
ĠAsi ria
Ġkara wang
Ġgeomet ris
H D
O ri
j ika
in th
Ġs logan
Ġb ubur
ĠS yl
ĠB ot
ĠT elur
Ġpeng iring
Ġpro yeksi
Ġkep ut
Ġdis emb
Ġkem urnian
Ġag enda
Ġketi adaan
Ar thur
Ġlingkungan nya
Ġgi m
sin etron
akti an
ĠCap ital
Ġtol eransi
onstr uc
ĠHadi ah
contoh nya
ĠCru z
W A
p ia
s ya
z ai
Ð ¼
la va
Ġk oridor
am ak
es co
Ġber air
ĠP ali
ĠK ain
ĠT oh
ĠT ris
ĠC iv
Ġpen dorong
Ġser apan
Ġdip ekerjakan
qu er
aks ara
Ġberl impah
Ġind ikasi
oa ch
Ã³ s
oboth ea
ĠAdam s
Ġol ig
dahul uan
hibit or
Ġpembeda han
ithuan ia
" (
D ig
D ewi
h entikan
r eta
Ġp lot
Ġin ov
ĠA rian
Ġper intis
Ġper wujudan
ul la
Ġla ter
ĠN elson
op lus
amp urkan
ĠE arl
sa udaranya
ag oge
Ġkali an
Ġdip indah
Ġmengh impun
emen s
Ġkon duktor
ulu e
ou v
ĠMas k
ĠSer ing
ĠDe an
Ġmengak tifkan
Ġbertu buh
ĠCo unt
ĠCo oper
Mar c
ĠAli ansi
ĠMel anagromyza
Kons er
ĠRi yadh
ĠPin tu
abri kan
Ġdak wah
N ovel
o on
Ġd og
Ġk ura
Ġt her
Ġdi urutkan
Ġber tum
ĠM om
ĠM ika
Ġw an
ua ge
ĠW oman
Ġdip anen
ĠAl pen
Ġbers amanya
Ġmil itan
ĠOr ganization
Ġmengk hususkan
kh os
Ġtur is
Ġseng it
ĠKend araan
usn ahkan
ĠSingk awang
Yah udi
Ġmultin asional
C ot
J aringan
L O
X en
es tr
ga dis
ĠS ac
Ġber daya
ĠA is
ĠA ragon
ut su
Ġper awat
ul s
Ġg ong
ra ya
od d
don t
Ġ3 000
Ġkec oklatan
Ġ18 30
Ġdir ujuk
Ġbert ingkat
Ġi badat
Ġdic antumkan
Ġpengh alang
egi un
Ġe uro
Ġlog is
Ġkul on
Ġsig n
Î¿ Î½
misi kan
ĠAy ub
ĠPrak tik
Ġmemin jam
Ġsentu han
Nun siatur
hyti phora
L asi
P ed
i asaan
ar dia
Ġb utuh
ĠP uluh
Ġh adis
Ġg ang
Ġla c
Ġr awan
Ġsel ir
uc le
Ġ18 50
ĠSeb enarnya
ingin annya
ĠIni lah
les wig
ĠCon vention
Par oki
ĠKos ta
Sm k
Ġdias ingkan
Ġjurnal isme
ĠSta dium
Ġday ung
Ġepid emi
Ġpenip uan
Ġmera up
Ġektop arasit
A ma
U mum
Â ³
an eka
ĠP omp
ĠK arta
Ġmer umuskan
Ġl upa
Ġmeng er
ĠC ala
Ġla w
op edia
ad ari
ma wan
ĠBar ry
de z
oid ea
Ġmend isk
ĠKar no
ĠMah mud
Ġberat uran
Ġpep ohonan
ĠPe ople
Ġpenyimp angan
Kom ite
Ġmendi dik
Ġberdamp ingan
ĠStrat egi
Ġpenamp akan
ĠGala xy
oly sis
ĠKoda m
Ġkejaya an
Ġmenjelajah i
K arl
P ag
R y
g ames
v irus
Ġ urat
Ġs usah
da p
do ri
ĠS ega
is akan
Ġber afiliasi
Ġmen ip
ĠA badi
Ġper budakan
ĠK af
Ġh an
ĠC ic
ĠL emb
ĠH ui
ĠG hana
ili tasi
Ġgen era
ĠW isata
Ġsek u
ĠV is
mas ter
Ġdib alik
ku il
Ġpeny isihan
Ġakhir an
Ġku ah
Ġtel eg
Ġtra uma
Ġbola ang
Ġwa jar
Ġmengg antung
AN G
Ġpo tret
Ġmengin feksi
Ġsubs titusi
ĠEng land
Ġpl ur
ĠEc onom
B anj
R umpun
T U
X ylotrechus
f itur
u chus
Ã ¹
an ai
Ġt una
on isasi
es o
ĠP arti
Ġj ak
ĠI beria
eh a
Ġn ur
ĠJ ian
Ġc ukai
pat h
ĠE u
ĠV it
hir up
ont e
ĠX iao
Peng adilan
ĠTh at
ĠYun us
Ġberg eser
Ġbek asi
ĠFran Ã§ois
Ġsah abatnya
Ġbr ebes
Pas ca
ĠCi anjur
Ġkeg elapan
Rom awi
anifes tasi
Ġcengk ih
ĠBrus sel
B oy
D ag
I F
K ara
R oman
S he
d rum
p osi
t ong
ì Ŀ
ï ¼
Ġse ason
Ġke ilmuan
Ġmen dahului
ĠM ug
Ġl ut
Ġmeng un
ja wa
ep os
ĠL aras
ĠR ak
od ern
ila u
Ġak urasi
âĢ ĭ
ori zon
Ġked ekatan
Ġbert eman
Ġkomp rehensif
ern o
bum ulih
Ġes ai
ĠTa e
ĠÃ ĸ
atri x
itt atus
Ġpo int
ĠGa o
Ġfot ografer
Ġpersi dangan
Ġfon em
ĠPtol emaios
C am
G or
P hy
W i
k ron
m enc
r ary
å Ĳ
Ġ ah
Ġ arang
tu asi
ga dir
ol om
ĠP ab
ĠM P
Ġpen ularan
ĠF am
ot to
amb e
ili um
he us
ĠCh all
Ġlu cu
esk top
ĠSa ul
Ġdig ali
ask ular
enti lasi
unda an
Ġdatang nya
Ġpar v
ĠHer o
Ġme wajibkan
ĠTai pei
opter us
ĠKara eng
andal kan
Ġberdag ang
R encana
d pl
m ore
p ri
Ġs qu
at ak
Ġk anji
Ġb il
Ġt ala
ga e
ĠS ti
Ġter luar
Ġper gel
ĠK ue
ĠD w
ida d
ĠL una
ĠG alia
Ġpem angku
ĠF ujian
ad an
Ġpeng adaan
Ġsek ian
ĠV ia
tasi a
ĠCh rys
Ġpend engaran
Ġsed er
19 45
Ġterk endali
Ġst atis
ukup i
ĠJan e
ĠSer ingkali
Ġmon oksida
Ġterd uga
Ġmit okondria
ewa an
ico las
pin ang
ĠBri gade
ĠHim alaya
Ġsila m
E li
V en
W arna
k ret
in ing
Ġs l
Ġk up
al c
as ehat
el lan
ĠM ati
ĠL anc
ĠL GBT
ĠIn n
Ġc enter
per mainan
Ġser ingkali
ĠO st
ĠY uli
eri us
oda c
oc c
Âł Âł
ind us
ita kan
ĠTer jun
aksi mal
aks inasi
Ġri tus
Ġpenc emaran
Ġsin emat
Ġberm unculan
chi i
ĠKon on
ild ing
198 5
pem impin
Ġgam ma
Ġanda lan
Ober eopsis
ĠNord ik
Radi o
Ġpneum onia
k k
k ac
Ġd os
ek onomi
Ġmem aks
ĠB asket
Ġh im
ĠT ower
ĠJ ur
ih e
ber at
ip i
ob ak
Ġdis engaja
ej ang
yc lop
oc tria
Ġkes enangan
hi i
Ġpeny ebutan
Ġpeny ihir
Ġkel elahan
Per h
Ġtert inggal
ĠKom ering
Ġep il
arg umen
ĠSe ung
âĢĻ .
Ġpand an
ĠEur opean
Im am
Ma ur
PA C
Ġpecah nya
Jos Ã©
Cla thria
komp onen
ĠShar ma
Ġpembah asan
I d
N okia
O x
Ġb lora
as pek
Ġdan sa
ir iknya
Ġla yang
ĠJ epara
Ġpem etaan
ig ata
Ġkap sul
ĠLe eds
Ġmengk aji
Ġth riller
sin ki
ĠGa za
Ex echia
ĠKi ev
Ġekstr as
Ġpros titusi
Ġpap irus
Lo ire
oder ma
Ġdija bat
ĠPerh ubungan
Ġveg etasi
Ġmenges ahkan
1 10
F rancis
K M
N ap
S amp
Y P
i eld
Ġ ÏĦ
Ġp acu
at atkan
as et
ĠS ikh
ĠP ekerja
ĠM ant
ĠB aku
ĠT ali
Ġl antaran
ĠN ay
ĠJ og
ĠL ingga
ĠG um
ĠG ui
Ġpem adam
Ġpem urnian
Ġmeny embah
ĠE X
ĠE le
Ġker a
Ġdip ukul
Ġan tagonis
ola ta
Ġkel uhan
ĠKe ys
ĠUn ic
Ġmengg ulingkan
Pro t
Ġefek tivitas
ith m
ĠSi ak
ĠSi erra
rag oneura
Ġto ilet
Ġfr ont
ĠBol s
198 8
ĠJac ques
mun ity
pol itik
Ġmengu ap
Ġdekor asi
Ġberker abat
J in
K elas
Ġ ulat
Ġp ori
Ġt ukar
ĠB harata
ĠI ra
Ġl in
Ġc onf
ĠH orn
ic ulata
Ġberk enaan
ĠCh em
Ġ18 59
te kan
Ġmend esain
Ġst ok
rat es
arat on
Ġta yangan
ars ari
Ġ187 5
ĠMor owali
ĠPeny ebab
Mer upakan
Ġekstr aksi
ĠKir giz
ĠSol omon
Ġeng ine
Ġtir inya
ĠLen in
Ġstu dinya
UM N
Ġberkom entar
ustic e
Ġpengkh ian
Ġkeseb elas
K omando
L ingk
S umat
T am
r ika
× ¨
Ġp angk
ĠI an
ĠT urner
ĠC ilacap
ĠH az
ip an
Ġpeng angkut
Ġbi ro
ist es
ĠPer nikahan
eri um
âĢ ¦
ob ilisasi
Ġmusi man
Ġpol y
Ġmemper juangkan
ern ih
onom us
Ġ8 9
Ġditu m
ungsi kan
Ġbertu lis
bo ok
pi j
ĠSun ni
Ġkeker ingan
leksi tas
ĠSant os
ĠMosk ow
Fran k
ĠIk lim
Ġmemf okuskan
ĠStan ley
A na
B P
K ayu
M all
T E
T ime
c ourt
g ate
m erah
È Ļ
å ·
er v
Ġk lasemen
Ġk romium
on ey
Ġke unikan
ĠA KB
ĠK alau
ĠK risti
ĠB rig
Ġpem entasan
Ġw onogiri
Ġmemb enarkan
Ġal un
Ġkons truk
ura u
unga u
sil us
ass us
arn aan
Ġgi rl
ren ch
ĠRa ch
Sh in
Ġpengg antinya
Ġberd urasi
Ġtri f
Ġkemb alinya
Lep thyphantes
ĠMobil e
awet kan
Uk uran
ĠDomin ika
Ġpeg ulat
ĠHiros hima
C AR
Q uran
S pesi
p end
Ġm arta
Ġdi alihkan
is sa
us han
ĠA q
ĠK ast
ĠK now
ĠK night
ĠT ulisan
Ġmeng ungkap
ĠC IA
Ġn atur
Ġpen yar
ĠN yon
ĠL ai
ĠH ua
os eksualitas
ĠE mer
ew art
uran ce
Ġdir es
ka wa
ĠAg eng
ĠZ ab
ks wagen
Ġpenc urian
Ber beda
ĠAir ways
ĠEx ocentrus
ĠHo uston
ĠRe za
Ġsaham nya
Ġtem anggung
Ġsam urai
ĠRah wana
Ġhom ogen
ĠErn st
Ġwir acarita
Ġbenz ena
B R
H ewan
H igh
I de
N egeri
O ff
t ze
Ġd eteksi
Ġd olok
Ġp esi
at ia
Ġse arah
Ġber egu
Ġter umbu
ĠM ap
Ġ" [[
ĠC entury
ĠIn formatika
Ġc over
Ġdik hususkan
angk it
ac ulatus
ĠCh and
af ar
ron im
Ġst rip
oy ama
Ġdid eteksi
omor o
ĠPh iladelphia
Ã³ w
ĠHe ad
ĠSar as
Ġmask ulin
Ġpres entasi
ĠRep ublic
Ġketida km
ĠGalil ea
Ġbirok rasi
O per
S F
d elia
l eh
l umat
o tipe
p osisi
t et
Â Ń
Ġp le
Ġk ac
Ġdi andalkan
us ai
Ġke ta
ĠB PS
ĠD ebut
ĠJ aksa
ĠR A
op r
ber alisme
ad ana
Ġdit elusuri
ag h
Ġdik emas
Ġdip ancarkan
Ġkes al
Ġkons ensus
ĠAk un
Ar mada
ĠSy ariah
sen yawa
Ġmenya la
ĠKam al
Le on
ĠPend ekatan
ĠBro ok
Ġing at
omec yna
ĠCekos lowakia
Hymen optera
F ederasi
J enderal
M un
i er
m idae
di baca
Ġter lambat
eb uran
Ġj aksa
ĠT han
Ġc lav
Ġpem ancar
ĠE instein
Ġker nel
Ġsek resi
osi an
Ġdis c
Ġdis ebarkan
Ġberk ek
Ġkec emasan
ĠDi ana
ĠPro v
rit is
Ġgel embung
As h
Ġis omer
co in
ĠMak mur
Ġkulit nya
Ġketer kaitan
let ti
Ġberla buh
onc ong
Ġkola bor
Ġpres enter
ĠPD I
Ol impiade
ĠId ris
ĠCin ema
Ġgrac ilis
omorf isme
Ġmaz mur
B uddha
S and
S ei
V an
g antung
p resi
Ġ urut
er ic
at ama
Ġt ani
Ġmen angg
ba wa
ĠM uni
ĠB ath
Ġl ev
op old
asa i
ĠG usta
ati b
Ġseh arga
Ġpeny elamatan
Ġdil anda
ĠPen ingkatan
Ġst ri
ĠSp ecial
fr ons
Ġpun k
fa ir
ĠGu o
ĠAd ri
ĠSen egal
ĠHer odes
ĠMe it
ĠOn tario
ĠMur ray
zh en
Ġsum edang
Ġkod eks
elektr on
Ġcek ungan
Ġredak si
ĠHamb urg
L Ã©
R ama
R opica
r uh
z aman
Ġs asis
Ġk endal
Ġb es
am ir
us akan
Ġin jeksi
ĠP emenang
ti er
ĠD id
ĠD orcadion
ĠN U
wa ve
Ġmeny isakan
st ed
Ġpr asarana
ain an
ard en
entu ran
Ġsep upunya
Ġpeny unting
Ġair nya
Ġar c
ast ik
nis un
eph al
ric an
Ġsin us
Ġsal eh
Ġfisi ologis
eth ya
Le ague
ven tus
ĠJon athan
ĠBoy s
ĠPu isi
pons ori
Kab inet
Ġpengabdian nya
ĠVla dimir
Ġprobab ilitas
B ukti
Z ona
Ġ yat
Ġd alang
Ġp anti
Ġber anggapan
ĠP KI
Ġh ong
Ġmer ambat
ĠL it
ra il
ĠG oa
Ġpem ukim
ot ta
ad il
Ġv entr
Ġdip ulihkan
Ġmemb elah
man ia
era v
Ġberl indung
rag ukan
rof esi
ĠSej arawan
Ġjurnal istik
wor ks
ĠKop tik
ĠBrah ma
Mus lim
Nor th
Ġsangg up
ĠFransis kus
Ġterbar ukan
Ġgig itan
Ġkhal khos
F o
L um
M ythicomyia
O m
T amb
k utan
r ir
Ġ ensi
Ġd end
Ġdi ulang
ĠP E
ba y
ĠT ac
ĠT rit
ĠT iger
Ġmer pati
Ġg ro
Ġg ris
Ġr amping
ok wari
ĠH ast
ĠG ray
ali c
ch ema
Ġv ital
Ġberb atu
Ġmemper bolehkan
Ġar sen
te e
ĠEn c
lo dia
ĠSal uran
Ġkeber angkatan
Ġanti oksidan
Ġab orsi
Ġbak ti
Man usia
Ġ187 7
ĠUr b
ĠKek h
Ġmenghar apkan
Sebelum nya
Ġkerap atan
Tory midae
Ġbl ock
Ġaff inis
ĠBuda pest
% ;
G un
S esuai
h itam
q ub
Ġd onor
Ġm im
ap ha
ap har
ĠI BM
ĠD elapan
ela jahan
Ġju jur
ĠJ ag
ĠE h
Ġv oli
ĠIns tr
Ġdis amping
ĠCh un
ĠZ el
ĠBer t
Ġkal ori
Ġplat ina
rag ma
Ac anth
Ġekor nya
Ġkin etik
amer on
ĠKara wang
Ġest etika
á¸ ¥
Ġtrag edi
A U
C in
S ph
S atuan
g uru
h ingga
s uk
Ë Ĳ
Ġm artir
Ġp it
Ġp angsa
Ġb ingkai
ga g
ĠA wan
ĠP anji
ĠK ajian
ro me
ĠT ara
ĠR ani
ĠR amadhan
Ġc ilacap
Ġpeng erjaan
Ġsen sasi
ea ce
oc n
Ġdiper hitungkan
Ġro b
ĠX uan
Ġbersi ap
ins k
Ġmon itor
Ġinter aktif
Ġprim ata
ĠMari ah
Ġevolusi oner
Ġnig ro
ĠBak teri
zu oka
Ġsesudah nya
Ġpemas ok
overn ment
Pon dok
ĠAbdur rahman
Ġrint angan
ehab ilitasi
ĠKauk asus
D or
G od
p ola
w angsa
Ġd estinasi
ĠS ew
us ka
Ġke inginannya
ĠM una
ĠB ian
ĠD og
ĠC F
ĠC e
ĠN ir
ĠJ ia
ĠJ udul
ĠJ ustin
op tim
ĠG Ã¶
tr as
ic tus
Ġant is
ĠV olume
ni i
era u
wal l
Ġhal uan
ĠTh ompson
Ġhid rof
film kan
ke ologi
uga wa
Ġben ing
Ġterd epan
ĠJo an
put ri
ĠMaka u
Ġmendek larasikan
Ġbal istik
Ti onghoa
Ġwar ung
Ð¾ Ð²
yeksi kan
ĠLabor atorium
ĠEngine ering
Ġultra violet
A lam
B udi
B lang
C anthidium
K ode
R u
W on
j ee
v re
z am
Ġp ant
Ġdi ragukan
eng erti
ga u
ĠA vi
it ari
ĠK id
ĠD ora
Ġ1 19
ĠJ ain
ĠF our
ĠPer ry
ĠPer ayaan
ila men
Ġak umulasi
Ġdip raktikkan
Ġan us
Ġmemb olehkan
Ġkes edihan
Ġku ar
ĠMen jadi
Ġdih apuskan
Ġmengg el
Ġkek al
ĠÃ İle
La ur
198 3
itz er
KI P
On itis
Gen erasi
Ġpembu baran
ĠSet ahun
ĠPS SI
opol is
ĠPrinc e
C opa
F l
K ing
S uz
b asa
o uri
p t
s angat
z ing
Ġk ian
Ġb um
Ġt ot
un tain
al ph
es c
Ġber ep
Ġter la
ĠB N
ĠB P
ĠI ron
ĠT asikmalaya
Ġmeng iringi
Ġg ampong
Ġg letser
ĠC H
Ġr abi
ĠH ang
ĠH ud
ec e
ĠE rit
lu g
Ġpro te
ĠZ an
Ġkomp osit
ĠSh ip
Ġmend ekat
ĠSt andard
min ster
Ġ17 0
com ment
araf iah
zo ikum
ĠSir ia
197 9
ĠPed ro
Ġnir laba
senjata i
ĠAta u
Kong res
ĠBenedik tus
A pa
H utan
J urnal
K eti
L ife
i las
r atu
s ej
Ġs n
Ġs ut
eng si
um er
Ġber alkohol
ĠK rak
ia d
ja uh
ida dari
ĠL ake
ot ti
Ġw ill
ĠW ars
ic eps
ĠPer unggu
Ġak tivasi
eri ana
st or
Ġtim or
if u
Ġpemb atas
Ġperk er
aks inya
Ġkeb alikan
ram at
Ġkeber untungan
ĠMin ang
Ter l
ĠSch leswig
Ġbel anda
ĠMon umen
ĠBat am
Ġmili si
ven ue
Ġterj angkau
Pol it
, âĢĿ
T ol
T ingkat
c ideres
k egiatan
r ill
w ing
Ï ĩ
á ½
Ġd am
Ġd eda
la ta
ĠA T
ur on
ĠK elly
ĠB enda
Ġla bu
ep pe
tr asi
ĠF isika
ĠU M
ĠO ise
Ġseb entar
ĠV as
eda i
Ġkes tabilan
ei don
Ġkomp ensasi
Ġpemb ekuan
und uh
ĠSo edi
Or th
Ak tivitas
dow oso
SM K
ĠZh en
ĠSir kuit
Ġmengin jak
Ġtran sistor
Ġmal aria
ĠProduc tion
ĠCy ber
B ro
I R
K ron
R esi
b lok
Ġb rach
tu i
il ity
ĠB TS
ĠD res
ĠL yon
wa ffe
ab ella
ĠG ond
ĠF ari
ĠO ricon
ĠCh andra
Ġkem unduran
Ġterb enam
Ġdim engerti
aris ti
Ġhal ida
inc ir
ĠMas akan
Ġmon eter
Ġmah ir
ĠKeb un
bor g
bah arui
Ġmena iki
Ġmengulang i
Ġlim f
Ġmetabol it
ĠEner gy
enggelam kan
J ack
L ondon
c inia
Ġd al
ar dian
Ġt enda
ik uler
Ġber tukar
Ġmen dasari
Ġmem usatkan
ĠT ala
Ġmeng unggah
Ġr ay
ĠJ ok
ber sama
itu lis
anj uk
ili ar
Ġker ah
Ġpro duc
Ġv as
Ġmenc ukupi
Ġberb alik
ig yra
Ġket ah
Ġkap ita
ĠPr aha
Ġperusahaan nya
ĠBer kel
min em
Ġisti adat
Ġka itan
ĠKom isaris
Ġet nik
ĠBombyli us
Ġsim ilis
Ġpendukung nya
Ġdian alisis
Ġster eo
olitik um
mol ekul
ĠFerr ari
L alu
N asi
T y
T oy
n egeri
s ta
× ľ
Ġm oda
Ġm ono
do a
ĠS eseorang
ĠM ust
ĠC im
ch ang
ĠF ly
ub urkan
ist e
Ġdik erahkan
Ġmel ebar
Ġdip ecah
st is
gu ez
ĠCh opra
lam bang
Ġpemb iayaan
ĠSt ra
awat irkan
ĠAk tivitas
Ġdic ulik
utu re
Ġdig antung
yi aran
Ġkol ektor
Ġsup lemen
Mar ne
Ep icypta
val en
Ġresi men
Ġarke ologis
Ġlong sor
ĠIS O
ĠBud ha
ĠFland ria
B lue
J uni
M aka
P ac
R ec
T ro
d ehida
k ab
Ġd enda
in das
Ġt ric
ĠS tein
ec om
ĠW HO
li ance
Ġsu bang
Ġdis ponsori
ole um
kin son
Ġ18 67
In t
Ġkomun isme
ĠDem i
ĠAustr alian
ram e
yll us
ez er
Ġkek osongan
Ġkeber l
Ġmobil e
Ġab sen
ĠCon trol
198 2
esm ia
unct atus
Ġprek ursor
C el
D al
K edung
Z h
f um
m atan
r un
Ġp orsi
Ġse wa
ĠS intang
ol le
ul uhan
et in
Ġg aleri
bu cks
ĠJ ar
ĠL ambang
ĠR ug
ĠR iv
ĠIn doc
ĠH yang
ĠH era
ĠH af
Ġw ira
Ġbi bit
Ġv a
oh ar
oh am
Ġmel uncur
Ġan alis
Ġap ostolik
Ġag gr
Ġterk onsentrasi
impin annya
tim us
Ġmemas arkan
Pem an
ĠSw asta
ĠKes atuan
ĠKap ur
Bup ati
ĠOs lo
Ġnig ric
ĠKamp us
Lept otarsus
-- --
romat omyia
Ġberkec epatan
ĠDist rict
ĠGag asan
ĠHij ri
ĠTurkmen istan
ĠThom son
Cycl osa
B T
B ut
C ir
M O
V ictor
k aki
r era
t indakan
w anita
er ling
en ari
in os
Ġp aha
Ġb ej
em ahkan
Ġter ampil
ur iga
ĠB ack
ĠD esign
Ġbi omassa
Ġsa ji
ĠAr c
ic le
ĠPer encanaan
ani tasi
ib ahasa
Ġmas ehi
Ġ18 61
Ġpas uruan
ĠMar g
engg ang
ustr y
Ġkal or
Ġters angka
Ġtr im
Ġta at
Pert ama
Ap abila
Ġbersa yap
198 4
Ġpep tida
uy ung
utif ul
Ġtangk apan
Ġmembu barkan
isk al
ĠGra ce
Ġrup anya
ĠRena ult
Ġkip as
A turan
E t
P okÃ©mon
S es
Ġd own
Ġs om
Ġs oftware
un ian
on aktifkan
ĠS ita
ĠS ahu
di tas
ĠK m
ĠK ids
Ġj ilid
ba dikan
Ġl anc
bu hi
ĠL ukisan
ĠR ancangan
Ġpeng aw
ati ca
ĠW ik
ĠO seania
ac ea
Ġsej uk
Ġberb i
Ġdir umuskan
An c
Ġz i
yl er
Ġtu as
Ġpel antikan
Ġel ong
rom eter
ĠAd rian
ungk ai
Ġkamp ar
Ġsis inya
Ġle uk
Ġex p
val ensi
ĠCO N
Ġten un
Ġlum ut
Ġtek tonik
Kur si
Sw iss
Ġrohani wan
ĠHold ings
Ġeleg ans
Ġkeny amanan
Ġbing ung
Ġberkek uatan
B ox
H ero
R ek
S imbol
k estra
s anya
å į
di visi
it ta
ĠM enc
ĠB um
Ġh ara
ĠI rian
ir onomus
Ġ2 20
ĠL angkah
ih i
Ġor de
ĠH os
Ġpeng irim
Ġdis aksikan
Ġpol ig
ark isme
Ġsub sidi
ĠSer ang
ukti an
Ġpenelitian nya
Ġspesi alisasi
ĠEd in
ĠCom edy
ĠGeor ges
Ġsastra wan
198 6
ĠOb last
Ġtun as
Ġsamb al
Ġbij aksana
ury eo
Yo hanes
ĠYos ua
ĠFuku oka
rakar sai
" ("
G reen
H ap
U R
f ort
r eb
§ Ģ
en ol
ak tivitas
ĠS BS
ĠK astil
Ġmem anjat
ter ia
id ya
ena u
Ġker inci
ĠPer lu
le z
ib den
Ġ18 63
und anya
Ġat letik
Ġterp en
men urut
ich y
ht isar
ver tebrata
uth or
pem erintah
Sy stropus
ĠQu ebec
lag ithm
Ġbanj arnegara
ĠCur letti
ĠNas ution
ĠMaur itius
Ġmud anya
lagithm ysus
I PM
S ho
k eluarga
l okasi
æ Ŀ
en ic
Ġm g
Ġs ia
Ġb ro
si ki
ya ki
es ahan
us in
ĠP ublik
Ġj a
ro e
Ġh amp
ĠC ry
id um
Ġmemper lambat
ell um
ark at
Ġpel estarian
ĠPeng urus
ĠPeng elola
Ġperk ampungan
Ġdid engar
Ġdata base
Ac ademy
och rus
Ġeksp loitasi
ĠKart ini
ĠTern yata
Ġblu es
Que en
edr alnya
C anthon
D ist
G am
L M
g ik
q uran
Ġ ama
Ġ email
Ġp abrikan
at schap
Ġb ri
Ġter apan
eb oman
ĠP onorogo
up as
ĠM itch
ĠB ayu
et ty
ung ku
Ġpen ambangan
ĠL imb
ĠH um
ĠG las
Ġpeng u
Ġsu aka
Ġmemb icarakan
se tujuan
19 75
ump alan
Ġman can
Ġga dang
teri ak
Ke jadian
ost ylus
Ar c
Men y
eni i
etu ai
Ġch rys
Ġpat ut
Ġdirek rut
Ġval ensi
ĠFi eld
Ġdrum mer
ĠDok tor
Ġgran at
Ġges ekan
Maj elis
iklan an
ĠChamber lin
Keber adaan
A ch
M os
P asir
T aksonomi
i es
Ã »
Ġm utiara
Ġs osis
Ġdi ingat
us ukan
uk l
Ġh ouse
Ġh arafiah
ĠI gn
Ġl up
om ori
ĠC atal
ep uh
ĠJ essica
ĠR ela
per ubahan
ic er
int ing
Ġsel ang
ug ht
Ġpeny embahan
to ides
af ia
ern er
ell ip
10 1
Ġpener jemah
ĠKh adafi
Ġkonf ederasi
Ġsy ukur
hak ti
ĠHy un
ĠLuc as
ĠHip p
Ġref leksi
Ġsum sum
Ġent ah
ĠGuang dong
Ġsand wich
Ġproto tipe
Sci ophila
P eta
p ra
t eknik
la u
Ġs kuat
is san
ba o
ĠM yr
Ġmem esan
ĠB eg
Ġh and
ĠL ah
ec us
ĠW ib
Ġsel isih
Ġkom a
Ġdih indari
ĠJerman ik
Pen jelasan
Ġger hana
ĠMan diri
ĠMan hattan
Ġberm asalah
ĠJohn ny
ĠKap ol
Ak tris
Ġlen dir
Ã¸ r
ĠLeg end
ĠMÃ¼n chen
Ġketidakp astian
atschap pij
D oc
R eal
g Ã©
j p
k ir
t osia
er os
am atkan
ĠS alam
ĠS orong
Ġmeng utus
ĠL ac
ĠF arm
Ġdit untut
ĠW right
Ġant ologi
Ġdib ongkar
yar d
Ġdiper siapkan
ĠKe adilan
Ġen kripsi
ĠSp eed
Ġpengh itungan
Peng undian
Ġti ongkok
ĠPara guay
ĠGr esik
ĠSu bang
Ġkab ut
ĠGi ovanni
ĠIndustri es
ĠFrank furt
ĠOri genes
Ġhas rat
ĠAngk utan
ĠDek larasi
K ang
K ini
P angkalan
S is
T ir
h us
p ina
Ġ ãģ
Ġd eg
Ġp egas
Ġk endala
ĠS isa
ik in
ĠP iagam
ĠT ana
eh e
ĠN A
Ġw il
Ġpro v
ob ius
Ġmel u
Ġmas ker
Ġbers uku
Ġob servasi
ĠâĢ ĭ
Ġtengah nya
hy ne
Ġam onium
Ġmenurut nya
ahaya an
unda i
ĠPas uruan
Ġduk un
Ġkre ativitas
ĠVal ent
ĠWar sawa
hironom us
Ġpl utonium
á¹ Ń
ĠSya ikh
ĠWill em
Ġberdo sa
Komun e
ĠHung aria
Win dows
ĠKrish na
ĠMontr eal
Ġperker etaapian
B ath
ĠS ter
ĠT elah
ĠT ulang
om s
om ik
ĠJ ang
ĠL oc
Ġc orn
ĠAn ugerah
ed ek
Ġdik osongkan
Ġas ma
Ġberb akat
hi jauan
Ġpel ari
Ġdiber sihkan
Peng h
Peng obatan
tember g
ĠIl ir
La ut
Ġkul tivar
Ġgol f
ĠZh ong
198 7
ĠLap isan
ĠKeh akiman
Ġlong gar
Ġbung anya
Ġdieks por
Ġmengeksp lorasi
otten ham
Ġsip ut
Ġwah yu
Ġmancan egara
B ib
L os
W anita
W hat
ç Ķ
en ovasi
ang el
ik saan
Ġber aneka
Ġj ac
ĠM ario
ĠB hat
Ġh obi
ĠT B
ĠT est
Ġn ek
ep tes
ĠJ R
ĠJ et
ĠJ ew
ong illa
Ġkar o
Ġker amat
od erus
ĠPer tumbuhan
An na
Al bert
ĠKer inci
inda i
ce us
ĠLin k
omo chth
Ġkeluar nya
Ġterd egradasi
ĠAnt ariksa
Har ry
Ġful v
Ġkeponakan nya
Ġmeres pon
Ġnu buat
Konf lik
omochth erus
C ip
S ya
f ly
ar ra
in ame
si sik
Ġdi tab
am eral
do sis
Ġse pertinya
ĠS O
ut nya
ĠP R
ĠM D
Ġh ad
ul ingan
Ġg robogan
Ġr angsangan
ĠR ing
op p
ĠIn dex
ber ta
Ġdik omposisikan
aw ir
he ed
ani yah
ĠMar ch
Ġsp ort
mp h
tic s
ĠSy iah
ĠYah ya
Le ia
ĠPri ze
ĠAlex and
ĠTra de
Pol y
ES T
eder land
ĠLang it
mid t
ĠRobin son
Ġantark ota
Roy al
aphar ochrus
C ik
G S
H as
L an
L uk
P anjang
c ari
f ish
f ect
h ist
s ejak
t ed
t inya
Ġp olong
ari esthes
Ġmen yakit
Ġper g
uk uhkan
ba c
Ġ1 200
ĠC olor
ra jin
ĠH ugo
Ġpem anas
ĠF itri
Ġpeng unjuk
Ġker dil
Ġmel emah
ĠV erm
Ġan ugerah
ĠAm bar
Ġpend arahan
Ġdib aptis
ui z
") ;
ĠBer k
In siden
our ney
ĠSek ali
iz u
ĠGen eration
ĠPan zer
Ġtemb ikar
ĠKo ordinator
ĠHel sinki
Ġtun ai
Ġwajah nya
Ġra gi
tem urun
ĠNam ibia
Ġkompet ensi
ĠGard en
ĠTerit orial
Ġpengoperasi an
D ay
K G
b ing
r t
ar c
ĠS port
Ġter awal
ĠM ish
ĠI da
Ġa frika
Ġdit entang
ĠPer jalanan
ew atkan
end ing
ĠAl um
Ġ18 65
Ġar en
Ġberp asir
Ġberj asa
ry x
Ġ10 8
Ġtrans por
ost ylum
osp ital
Ġsup ers
ĠDe ath
Ġpat ungan
ĠMur phy
ĠSoc cer
Ġtemp e
CA F
Ek ologi
ĠNAS CAR
Ros ales
dig ma
ĠHabib ie
Ġmong ondow
Ġping san
Dich otomius
B oe
D unia
N ic
m am
v ideo
x el
Ġm angga
Ġb asi
Ġb ron
un asah
ĠS ichuan
ol ing
Ġin k
Ġl ig
ĠC iamis
Ġr un
Ġn usantara
ot y
Ġdik epalai
Ġmela yang
Ġdis tilasi
Ġdip uji
Ġan arkis
Ġmengh emat
usah akan
Ġ18 46
entu ra
Ġku antan
Ġi OS
ĠKor intus
ĠSo ul
Ġpri vasi
Ġberlangsung nya
Ġx anth
Ġmempert emukan
Mas ter
ĠSinga pore
Ap ril
ĠKo es
198 1
Ġmurid nya
Ġresi stensi
dim ana
Str at
Ib nu
Leg enda
Ġkoment ator
" âĢĿ
B ali
G al
H ik
f alan
h od
Ã ½
Ġ ombak
ak on
Ġber antai
it in
uk yu
ĠM emb
ĠB ent
ĠI TB
ĠD um
bu ang
ĠJ ak
ra ine
ĠR ei
Ġor anye
ĠH MS
ĠG arut
Ġmeny alurkan
Ġgen dang
ĠU mat
emb ley
Ġmenc atatkan
Ġ18 69
rit z
istr asi
Ġres onansi
rom b
ĠSp ring
Ġkont ra
iz i
iz za
Ġhi j
rik et
Ġberg engsi
Ġsemb ari
Ġimp ian
Ġdist ributor
Ros aceae
ĠGil games
ĠVik ing
Ġwon osobo
M am
N iph
S uka
T al
T entang
c ritic
m ala
r ell
t temberg
z ir
Ð ¹
à ½
Ġm esi
on ne
ĠS co
Ġter bangun
ek h
ĠM asih
ĠM odal
Ġ" ...
gi i
ĠI wan
Ġf lora
ĠC un
ĠN S
ĠJ ap
ĠJ oy
and aran
ub o
ĠU V
ic ans
ĠY us
ont aminasi
ef ek
ain e
Ġangg rek
bi um
Ġdia badikan
Ġro kan
yr Ã©nÃ©
ĠSam oa
ĠMat ematika
ĠGr egor
Ġdek larasi
ĠKun ingan
ĠOb jek
ĠPur ba
Ã¢ n
Ġpej alan
ĠStor e
ĠErn est
Ġtul ungagung
Ġseleb riti
Ġbertum buh
yrÃ©nÃ© es
C ons
b ulu
b elakang
j ima
u asan
u chi
z zo
Ġ og
Ġ angsa
Ġ anggap
Ġd orong
Ġm ekar
Ġm awar
Ġp antun
Ġk operasi
kan toran
on in
ĠS z
ti sisme
ĠB om
Ġf ranc
om erus
ĠC ana
ela jaran
Ġa j
ab ung
ĠG urun
ĠG aram
ĠW ard
Ġdik ontrol
aja ya
ev itch
tur basi
oc oran
ig e
ĠMar yam
Per ingkat
Ġberp rofesi
ĠZ hi
Ġtert anggal
Ġmenj emput
ĠSt atus
Ar ti
Ġpri vat
Un it
Ġsat upun
Ġint egr
Mar y
Ġher bal
ĠMaj or
so us
Ġmini atur
Ġdias umsikan
lap hy
Ġmenyang kal
Ġram uan
uft waffe
ĠEdin burgh
C I
C orn
F ilip
T ugas
j alur
l em
Ġ umb
Ġs ind
ĠS uri
ek sa
ung e
Ġl elah
wa d
ĠR itual
tr ess
ula tif
Ġkar t
angk urat
Ġv iri
Ġkep ah
end ung
Ġ18 68
Ġkom uter
ĠZ at
Ġterp opuler
engk ol
Ġdig emari
Peng epungan
Ġkor ona
Ġti ada
ĠMenurut nya
ĠLi beral
ĠYang tze
ij en
Ġrem ake
Ġ187 6
Ġpenya lahgunaan
Ġgur unya
Ġkob oi
B aru
F als
N u
R em
T itik
c anya
h ubungan
u asi
w est
er anan
ar ung
Ġk asi
Ġke ba
el sen
Ġj ag
ĠM isa
ĠM ack
ĠD ra
ĠD uke
ĠT ennis
ĠN adu
Ġa ula
ĠJ az
ĠL ithuania
ip rah
ch em
amb ik
ĠAn dorra
Ġbi b
ed uh
ĠW eda
ib adah
ump uhkan
Ġhar um
est inya
Ġi di
Ġz irah
Ġmasyarakat nya
ass el
ĠMat h
ond uras
Ber kas
ĠSi doarjo
ĠCo untry
Ġperh elatan
Ġben er
nes ota
Ġbuatan nya
Ġoper asinya
Musi c
met ode
á» ħ
ĠKamp ar
Ġram alan
Meri am
Ġren ovasi
Ġditrans fer
ĠArm strong
Ġstat istika
Dolich opeza
ĠEduc ation
G ag
K K
b ey
h awatirkan
Ġs yah
ah ar
ĠD rona
Ġl oy
Ġmeng gu
Ġ2 10
ĠJ azz
ĠL ock
ĠR ukun
Ġpem antauan
ad inya
ĠU TC
ac c
ob ek
Ġdip ecat
ĠAm y
ef t
se um
Ġbert em
to ecia
Ġ7 37
anc ah
res h
ĠAs y
Ġ10 3
.. ."
ĠX box
Ġsup ran
ĠRo ti
ĠKan nada
ret t
ĠEur ope
sel f
ĠTr un
Po ecil
akh luk
tra disi
ĠVal encia
mit tee
Ġsit oplasma
atom ik
ĠMarx is
Ġruntuh nya
ederhana an
Ġinov atif
G n
H angul
P rop
S ap
T uan
b eberapa
f it
p ektur
Ġp ank
Ġk acamata
Ġb im
il os
ĠS illa
ĠS angat
ol la
el iminasi
it ol
ap il
ap ia
ĠB eh
ĠD yn
ĠD olok
ĠC ut
Ġr unner
ĠH amp
ĠH ey
ch u
ch ain
ĠF ur
ĠO g
ag uan
Ġan hid
Ġap otek
insi k
ĠZ ee
rit ers
Di am
ĠX III
Ġpemain nya
Ġmet amorf
osp ace
iss us
Ġkeber sihan
ĠSk enario
Ġx ix
rig inal
lok ir
ĠMel ihat
Mela lui
Pela buhan
XX X
Ġgul ma
ector s
D ur
K odim
M c
P ont
b intik
h adap
Ġm angsanya
Ġs anta
Ġk oh
Ġb id
ĠS lav
us eb
Ġl angkat
Ġpen tas
ĠL l
Ġc iamis
ĠH ed
atan i
Ġw in
ĠE g
Ġgen ap
ĠU ang
ĠAr g
ĠW embley
Ġker abatnya
Ġsen dok
st at
ĠAm ph
Ġberk onsentrasi
tur ges
Ġterl estarikan
ĠPen jaga
ĠUni versi
10 5
ĠAk pol
Ġwa cana
ĠSem i
ĠSer am
Ġab normal
Ġpasangan nya
ĠKem asyarakatan
cha e
Ġsimp lex
eci es
ĠKeh utanan
Ġnukle otida
ĠSci ences
oceph alus
ĠGug us
oglob in
Geo dia
C ent
D ib
H um
I van
L or
m l
p indah
t ang
ar en
la tul
Ġp lus
es tor
Ġter isi
ĠP angkal
ap in
Ġper cabangan
Ġ" '
ĠB iaya
ĠB awah
ĠB arito
Ġh ap
ĠT C
Ġmeng ga
Ġba gai
ĠL ewi
ĠF la
ĠF lash
ed arkan
th y
ĠO mmatius
Ġkep end
Ġkem iri
Ġberp ura
An as
ark h
Ġtra ck
Ġdem ak
ĠX IV
yr us
ĠSer dang
ĠMich el
ĠShi zuoka
ĠGi gi
Ã« n
ejah atan
essi onal
ĠÄ °
Ġmendalam i
Ġfa una
ĠLut her
ĠGat ot
ĠErit rea
á»ħ n
D O
S or
V ariasi
Z hang
f ah
f ried
o el
o ul
z hi
Ġ asa
Ġm dpl
la an
Ġp ekat
Ġk emudi
Ġb etapa
ĠS utra
ta ck
ut ch
ĠK upang
ĠM W
ĠB uck
ĠT angan
ĠT atar
ĠR et
ĠF asilitas
ana e
Ġpeng ulangan
ĠE b
Ġbi c
Ġgen erik
ĠAr sitektur
eri gi
Ġ3 80
olo w
Ġterh ormat
Ġpol is
Per l
Ġberh ati
Ġro bus
Ġ7 50
ĠX iang
Ġkal eng
Ġberm esin
Ġch ip
ĠPas ca
Ġab dom
ĠMc G
Rh aphuma
ĠHas san
iph antes
Seri xia
Ġakting nya
Ġseper empat
Ġkekasih nya
Ġlet nan
ĠKritik us
ĠMuni ch
A yah
B ulu
B enz
O lahraga
P ul
e dian
v ol
y Å«
Ġm angkat
lah oma
ĠS R
di ana
ĠA ff
eb ack
ĠM ent
ĠB adai
asi k
ĠD ekat
ĠD ick
Ġmeng idap
Ġr agu
Ġn uansa
ĠN ada
ĠL incoln
ĠR az
eg atif
Ġor ig
ĠG ula
ec ts
pat ung
Ġmel el
uj ang
ĠDi per
any tarsus
ĠZ amb
und ing
ĠSM S
ĠPert unjukan
Ġsal mon
Ġpred ikat
ĠKed ung
Ã¼ h
bo ut
Ġbel ang
ĠKong regasi
anth um
Ġder as
dol um
ĠÎ º
ĠKomp onen
Ġpengan iayaan
etas emen
Ġasi m
Ġdiser takan
Ã¼r ttemberg
Sep anjang
ĠBroad casting
Ġdong eng
Ġkey board
P lan
Y es
g ejala
k ode
å °
Ġs lot
Ġp eb
lah u
ĠS abat
ĠS olok
ĠA P
Ġper umpamaan
ĠK eluaran
gi us
ĠT R
ĠT epi
Ġla un
ea c
Ġv ena
Ġterb i
ode on
Ġbaru lah
eti r
Ġmil imeter
form ation
Ġ10 9
Ġst en
In donesian
ĠDem onax
Ġy en
Ġkeber atan
ĠSch umi
Ġkontr aksi
Ġsur ah
Ã³ r
Le uc
Ġdel ta
ush ima
ĠKonstant inus
ĠSeg era
Ġkontras epsi
etul nya
Mana jemen
tex t
Ġdina ikkan
Ġdeda unan
ibden um
A ra
r ul
r ust
y alan
y oshi
Ġ oli
in at
Ġk satria
Ġdi dahului
ĠK B
ĠK opi
Ġj ajak
ĠM ie
ĠM itsubishi
Ġl ife
ĠC ahaya
Ġpen egakan
Ġpeng atur
ĠE tr
Ġdit emani
ag le
eri e
ĠCh at
Ġterb uruk
uc uk
Ġkom ering
Ġput eri
Ġberj angka
form ance
Ġek sis
omb ol
In vasi
ans ha
Ġgel anggang
war ni
ass er
ĠDir ilis
tabil kan
Ġtem urun
Ġpre ferensi
Ġsak ral
kons ep
ĠRod ri
Ġproporsi onal
ĠYosef us
A la
L adang
R aj
d etik
m akanan
t eki
Ġp up
Ġb usa
al ani
Ġke esokan
ĠP ekalongan
ara c
ĠM edali
ĠB eth
ĠB UMN
ĠT raktat
Ġl ist
Ġg ambut
ĠC las
ĠG empa
os ol
Ġser um
Ġdik u
ĠPer ilaku
Ġsela i
ĠV ichy
re kannya
19 70
est ro
te ur
por o
lt ra
ĠBer isi
ĠSt ewart
uri us
ĠPem an
Ġe ur
bak ala
ĠKap uas
Am b
Ġproyek til
ĠMes o
Ø§ ÙĨ
ĠMi guel
Ġdisa lah
ĠBab y
ĠCol orado
ĠMol dova
ĠBir d
antul kan
Mei oneta
ĠIU CN
Heli ophanus
ĠMeit etsu
1 12
S ant
Y os
c ing
t ara
u et
á ¿
Ġ ãĥ
Ġm adiun
Ġt afsir
al la
am erika
eng o
ĠS esudah
Ġber tab
di er
ĠP ath
Ġj ember
Ġmem buah
ĠT ikal
ĠC ob
ĠN BC
ĠR osi
Ġc odice
ĠU I
ĠV ari
ĠV osges
Ġ18 62
Ġkomp leksitas
Ġ7 47
Ġproses nya
Ġmend anai
omb e
Ġpener usnya
ĠPol y
Ġdij atuhkan
ĠMak kah
ĠGr ant
ĠAnd re
ero an
Ġspek ulasi
akes pe
lori dolum
F at
G il
I si
M inyak
P ang
P re
g itar
j it
la de
Ġdi awasi
ĠS oftware
Ġmen ing
Ġter tan
Ġter estrial
ĠP ustaka
ĠT iti
Ġr onde
Ġpen undaan
ĠN asi
Ġpeng ikat
Ġmela yu
Ġmemb iayai
ig li
Ġ18 37
Ġdiper ingati
onom er
ĠTer jemahan
ĠMen jelang
ĠKar enanya
ĠAng in
fer mentasi
Keb ijakan
ĠIb ukota
oll s
ren e
Ġkul tus
ĠHa iti
Pi donia
ĠGre y
Ġbut iran
Cer at
uny ian
ĠKop enhagen
ĠCos ta
kac angan
Ġyat im
A ron
K risis
f alkan
k il
u ve
Ġb anyuwangi
Ġdi lanc
ah n
ga kan
ĠS ili
ta e
di per
ĠK PU
Ġj ohn
ĠB oris
ĠI dul
Ġf un
Ġf ederasi
Ġf iskal
ĠR ick
Ġc akar
Ġc iner
Ġc intanya
ula m
th iria
isi ana
ĠW ho
las ma
bit an
ni fer
Ġkes enjangan
Ġterb ilang
rit eria
Ġtu gu
ĠPeng aruh
Ġkor e
Ġberm uara
ĠMala ikat
ĠSel euk
hana eus
Ġint inya
hak im
Ġdu et
ĠTs ar
Ġfos f
ĠRama dan
Ġnukle us
Ġkonsi li
adam kan
ĠFern ando
Ġporn ografi
ĠSudi rman
Boe ing
" /
T on
T ran
T egal
T ahap
g ow
Ġ {
an isme
in ang
Ġp iagam
at rik
Ġb lack
Ġdi wujud
ĠK olaka
ri us
Ġpen angkap
ĠIn ves
ud h
Ġas uhan
ĠAnim ation
ib o
Ġku al
Ġsp anduk
inc tus
Ch amp
jar akan
Or do
Ġch lor
ĠLu x
Ġkela bu
Ġseksu alitas
Ġdokumen tasi
Ùİ Ùĳ
Ġlawan nya
Ġdilanc arkan
c co
n ea
s ungguh
v okal
en uhan
or os
ĠS now
us er
Ġin hibitor
uk ungan
ĠT empur
ĠC ad
op lat
ih ar
amp aian
ec tic
Ġw etan
ĠAn to
ĠAn jing
Ġbi jak
Ġpro bolinggo
ila l
lat e
entu han
Ġterh enti
ĠZ u
Ġpel bagai
Ġ16 00
ĠTh ebes
Ġsk t
ĠSal man
Ġelektr olit
ĠAd anya
ĠKons truksi
ĠHer bert
Ġpan ik
Ġpan itia
Ġsab it
Ġmengin duksi
Ġlen yap
Hal te
lab ama
Ġdida mpingi
uts che
Ġgor ontalo
Ġteri gu
Ġchan nel
ĠKrim ea
ĠBalik papan
C it
K imia
M Ã©
S indrom
b up
b arat
o tif
s ed
v Ã¡n
Ġk ena
Ġdi unggah
al ong
ĠS angk
Ġber teriak
ĠK aki
Ġh ost
om ma
ĠR ia
ĠH arga
ĠH aris
ay ung
ch at
Ġmeny inggung
ĠE sa
ist in
Ġdis em
emp it
Ġal or
Ġberk uda
Ġberk eliling
ĠAk bar
Ġdig ubah
Ġsi am
vi er
po int
Ġsy ariah
ĠBul l
ĠAri zona
ĠJa e
Gu bernur
ĠEv ans
ĠChe v
Ġjer ami
Ġkron ik
ĠRay mond
Ġmengu atkan
TM L
Ġlah at
ĠRu dolf
Por tu
Komun itas
ĠBols hevik
Ġkeba jikan
F en
H or
S caraba
W eb
j elas
ä »
å ı
å ľ
ç İ
am kan
es en
um u
di d
ĠM era
Ġmem odifikasi
ĠT entang
Ġg amb
ĠJ anda
Ġc c
eg em
ĠG ary
Ġpert anda
ĠW oo
ag ukan
ĠAl pha
Ġbers ahabat
ĠOr der
Ġmengan ti
bon do
ĠPa gi
Ġfisi ologi
Ġmon ok
arn ing
Ġmengubah nya
esu it
ĠSimp ang
Hol stein
ĠTal mud
ĠMand at
Ġsop an
Ġpik sel
Ġteg uh
A silus
B anjar
C T
D R
E U
K ita
M id
O ut
p ent
w il
y ia
er aian
Ġs oc
un di
al ensis
ĠA ang
Ġter jaga
Ġj ernih
ĠM antan
Ġmem anaskan
ĠB aj
Ġh ay
Ġh ampa
ela ta
Ġc os
Ġc ontrol
ant y
itu ler
ip ur
ĠF ak
don o
re kan
Ġal marhum
ĠAl quran
Ġbers elang
ki en
Ġ18 48
oph on
su atu
bi ak
Ġkap asi
omb akan
omb olan
Ġdem o
ĠMan okwari
ĠSo o
ungg ul
ĠMin eral
Ġbila teral
Ġpenyebab nya
Ġbern apas
Ġdipercaya i
á¹ ĩ
ĠPos eidon
Ġbersik eras
Ġstim ulus
Ġetim ologi
Umum nya
Ġensi kl
akespe are
B ola
B olet
J uan
K ue
S ak
d ra
g ht
s berg
v or
y uki
å ¸
em ara
as u
tu lang
ĠA yat
ĠA uto
ĠP ig
ĠB elakangan
Ġh igh
Ġf asa
Ġg alur
Ġg embala
ĠJ ulia
anj eng
ic ent
angg an
ĠV il
uj angga
emp lar
Ġkota waringin
Ġdib idang
ard e
ĠPro tein
Ġdil estarikan
ron attus
wi yah
lo od
Ġkat edralnya
yam in
Ġdiak tifkan
Ġdek omposisi
Ġperc eraian
ĠNag asaki
Ġit alia
Sat elit
ĠProt okol
Akhir nya
ĠGuj arat
" ".
A ur
D ah
K ul
c ola
e ase
n em
t Ã©
er ji
Ġm egah
ang or
Ġp lak
si mus
Ġdi dasari
Ġmen i
ĠP sy
it aran
Ġh ow
ĠI L
ĠI lahi
ĠT at
ĠT ama
ĠT os
Ġl onjong
Ġr ebus
ai tu
og ok
le vel
Ġmemb esarkan
Ġterh ingga
Ġpel eburan
In f
Ġ0 9
Ġdic egah
utu m
sik sa
Ġalbum nya
ĠPol inesia
Ġins ang
ĠAb d
ĠGr aham
Ġdif ungsikan
Ġmenga itkan
ĠEp ik
Ġsebab nya
ĠOt onomi
ĠYeh ezkiel
ĠMax im
Ġpac ar
Ġdor sal
Ġkod epos
Ġfir man
ĠVo ice
itah uan
Ġgemb ira
Ġkompatib el
Ġbertulis kan
X L
c umi
n eri
Ġd urian
en un
Ġm id
Ġper iklanan
uk iskan
ti ang
ĠM itra
et ar
ĠT ech
Ġf ri
Ġf lag
Ġg alangan
Ġr awas
Ġpen ataan
ĠJ iwa
ĠR it
Ġc uka
ĠG ha
os tic
ĠF uk
ĠE minem
oda y
etap ang
ef leksi
ard s
Ġbert olak
An da
ĠPen dapat
ban e
dis inya
ĠMan uel
Ġradi al
Ġib unda
Ġcur am
ĠPeter sburg
Ġret ina
Go ogle
Ġtermin ologi
plan tasi
ĠTajik istan
Scaraba eus
A man
E rig
H adi
R us
T hy
a ch
c omp
r enal
s ara
z ed
Ġb akau
al uan
or u
ĠP ing
ĠK int
ĠK asih
ĠK ill
ro om
im ar
Ġl ink
Ġmeng gen
ĠN aj
Ġc it
ay e
amp unan
ĠU ji
Ġkar sin
ĠW er
Ġpro sa
ĠAnim e
of isika
oc us
ĠAg am
Ġsp or
Ġperk usi
Ġop en
18 0
Ġmet odologi
ĠQ uan
oba cter
Ġterbesar nya
Åį bon
tion ary
ĠMus ta
ĠMin uman
ĠMo tion
Ġmenya lahkan
ĠHam engku
ĠSol id
Ġtin ju
ekar angan
ĠWay ne
Ġrit me
aksimal kan
ĠJok owi
Bolet ina
+ ,
A q
D istribusi
F al
G ug
I katan
L ain
R on
w enang
Ø ¬
Ġs ate
ĠS ton
Ġmen argetkan
eb aya
ĠP ejabat
ap or
ĠM ys
Ġmem intanya
Ġh oki
ĠI g
ĠD et
Ġf eri
ĠC ep
Ġc ari
Ġc ib
ĠH unan
ĠH BO
Ġmeny amakan
ad atan
ĠAr tikel
ist o
Ġsem inar
ĠAl k
Ġpr am
Ġket ik
Ġdiper lihatkan
ĠMar cus
Ġmemp raktikkan
ens en
ĠPeng amat
Ġtra iler
Ġpengh ujung
Ġwa wasan
ess or
Pro duc
Ġprak tek
rib usinya
ĠPeny anyi
Î± Î¹
Ġastr onaut
rem asi
eduk asi
ĠMam luk
Han zi
Simp ang
ĠAtlan ta
Ġseku ens
enari onya
B idang
H uruf
K r
R aden
T w
d ha
o unt
p otongan
x im
Ġ ë
Ġd ella
Ġm osaik
Ġs imb
Ġp y
eb y
eb akan
el f
ĠP seudo
ĠK uru
Ġj epara
ĠB ron
ĠB awang
ĠB endungan
Ġmer intis
Ġa qu
Ġc y
Ġc uma
ĠH iz
ĠF ame
od ing
he imer
Ġbers ep
Ġad en
Ġeks emplar
aks o
dis ertai
ĠTh erav
ĠThe atre
ampak kan
orn o
St atistik
dir kan
dol on
ĠGa ul
Ġaksi oma
Ġekstr ak
ĠSat ellite
ĠArt emis
awas aki
Fir st
Ġbrit ania
ĠSoedi rman
C S
C ib
M eg
O bat
P d
S ong
j udul
m ungkin
r int
t ari
× Ķ
Ġd ensitas
ĠS TS
ĠA de
ĠA ustin
Ġper ab
uk nya
ĠD PD
ĠC odex
ĠR el
ĠR upa
ok or
atan a
ch opogon
Ġpert ik
ĠAm anda
ev ra
Ġperm usuhan
Ġtert unda
ĠAs et
Ġel ev
ou w
ĠSt ation
Ch er
ĠLa ura
ĠAb im
ĠKec epatan
ĠRo os
Ġpin us
Ġgar nisun
Ġpi on
Ġberla ga
Te am
Ġmag ang
ĠMed ang
ĠLan e
abu an
ĠBola ang
ĠJon as
ĠOp timus
Ġrap uh
Ġori entalis
ĠOber ea
ĠIsa ac
ĠGeo dia
Ġmust ahil
Ġpenet rasi
N H
P lanet
g edung
h ib
j n
Ġk idul
Ġt ela
Ġdi agn
ĠM esias
Ġh en
et or
ĠC ai
Ġ2 30
Ġr api
Ġc in
ĠV iv
", "
Ġal el
Ġsem isal
Ġ18 40
ĠPeng uasa
ĠKer ala
Pem erian
ement s
ĠWin ners
ĠStar bucks
ĠMeng gunakan
ĠLou ise
mit tia
Li u
Ġmendi dih
Ġbertambah nya
ĠKeh ormatan
arag ua
Ġtin jauan
indi vidu
gra de
Dim ensi
kurang nya
istimewa an
Ġterbi asa
1 000
B alai
P os
Ġd ol
ĠS W
ĠS ih
Ġber urusan
Ġmen antu
Ġmen enangkan
ĠA turan
ĠA labama
ĠP ilihan
ĠK is
ĠK uda
ĠM orning
Ġ" âĢľ
ĠD ela
ĠD itulis
Ġn at
Ġpen obatan
Ġc ost
ip tanya
Ġsela put
ont ologi
Ġres or
ĠKer aton
yp ogon
ess el
Ġmiliter nya
Ġberm usik
ega wa
Ã¼ k
ĠKh mer
ĠMo ch
ĠAnd reas
fik s
Ġdibagi kan
ĠTrans port
à¸ £
Si do
Ġdipas angkan
ĠLib rary
Ġadi tif
ĠTon ga
Ġkarangan yar
ĠKonser vatif
Ġunic olor
L ip
M ask
V la
Y ak
p pen
r ent
s sel
at alan
am uan
as ing
ada ya
Ġse ism
Ġse sekali
ĠS tern
us ha
Ġl and
om in
Ġg eser
ĠN GC
ĠR onald
ĠIn vest
Ġpert entangan
ĠE unidia
ed ikasi
Ġdit injau
ua an
ĠO xyopes
Ġv ic
aj akan
ĠCh risti
ĠCer odon
Ġdir ep
ĠZ ak
ho ut
udara an
Ch ris
Ġpenc erahan
ĠMa atschappij
ĠSem it
Ġzaman nya
ministr asi
ĠLu is
Ph one
ĠKol onial
Ġpos ter
sor psi
Ġton jolan
Ġlel ucon
Ġberak ting
ĠRy ukyu
We ekly
Ġkultur al
ĠAch mad
Ġnab ati
Ġdiwujud kan
ĠCerodon tha
A lue
F in
a q
b os
d ate
t elasi
w am
Ġk ah
Ġb eng
Ġt aring
em onstr
ik os
Ġin tim
ĠA venue
ara d
Ġmem ihak
ĠB enth
ĠD wi
ama inya
Ġmer agukan
ĠC incin
ĠC loud
ep tida
Ġa dopsi
ip ut
emu at
ĠE z
isi ko
ic z
ĠPer wira
ĠV ancouver
umum nya
hi za
Ġditu mp
In formasi
In jil
Ġkal du
Ġsk etsa
Ġmodern isasi
pen yakit
rak e
Ġmobil itas
ts ch
âĢĻ ,
ĠMela ka
str eam
ius eppe
Ġlel eh
Komp onen
Ġpew arnaan
ĠWat son
Ġmic ro
ĠGuang zhou
ĠTum enggung
maja lah
Ġepil epsi
B atang
B ha
K omunikasi
S amb
k ela
w ung
Ġm ig
it en
Ġper eaksi
Ġmem andu
ĠB eli
ĠD ul
Ġun dian
Ġg ulat
ĠC ath
ep po
Ġc umi
ĠG PS
ec ha
ĠAr tis
ic ata
ac ita
Ġv in
Ġv ers
Ġkep uasan
osi gn
Ġdis adari
Ġdip injam
ĠCh al
te uchus
ĠMer ek
Ġri b
ĠKat h
rip ennis
ĠÎ µ
Ġpur balingga
Ġalk imia
ĠWal ker
ĠKur di
ampi on
ĠHi ro
Ġmulut nya
vo ir
Gen eral
ĠPerm ukaan
ĠLog am
c atat
m ini
p abrik
z ano
er ap
Ġk adipaten
Ġt ex
da o
am med
as at
Ġse sat
ĠS etan
us ti
ĠA eg
ĠK lan
ĠK elu
ĠB T
ĠR M
ot ra
Ġpeng rajin
Ġsa yangnya
ahan da
Ġsek urang
don a
aran nya
Ġberk ewarganegaraan
ef feria
umbu i
af e
Ġkel arutan
Ġkons tituen
gen us
ĠSh akespeare
ĠAng garan
ĠUn g
ĠPem buatan
Peng ertian
Ġpenc aharian
ĠSo ed
ĠSam aria
ĠSur iname
mer eka
ĠYah oo
tis ta
sk t
ĠÃ ħ
Ak si
Ġ187 4
Ġterj atuh
Ġkre asi
ĠØ ¹
ĠAntar tika
vir on
ĠKonf usi
ĠNun sius
Ġana er
Ġdiimp or
Rum us
guy á»ħn
ĠÃĨ thel
Ġdimin ati
Ġmendisk usikan
Ġterla tih
Ġpertik aian
. '
O mmata
S pir
S kuat
s eni
v ate
Ġd up
Ġp aya
Ġb ia
si e
Ġdi adili
al er
or ge
Ġter urai
ek uni
ĠB antul
Ġc ic
ĠH unt
ĠG P
ĠG ede
ot rof
Ġw ater
ĠW orks
ĠO ak
ian s
Ġmengh apuskan
Ġdib enarkan
Ġtangg uh
Ġga gak
Ġberp angkat
angs ari
Ġdaerah nya
mp l
ĠPeng endalian
Ġmenyer tai
ĠKer ta
Ġka us
ĠJan eiro
Ġpener angan
Ar ya
St elletta
illi ers
Ġlengk ungan
Man ota
ĠSunda y
bour g
Ġtir uan
Ġkant on
Ġbl itar
ĠTon kin
Ġfir ma
E K
F lor
K uta
L X
M edi
S uara
Y ayasan
e ong
h yang
Ì ģ
Ġ ill
Ġ ãĤ
Ġm igran
Ġp aran
Ġp uri
Ġdi ajak
ĠA jaran
Ġmem amerkan
Ġh itungan
ĠT ottenham
Ġc olspan
ĠAr ashi
onal is
emp ol
Ġpara bola
anda k
hi ch
Ġmemper barui
ne z
Ġterk on
ry n
uari um
engk akan
Ch ristian
oni o
Ġ13 5
ĠSek retariat
Ġlog arit
ĠMah ayana
enti a
tain er
ĠCl inton
juga si
ĠAri fin
And rÃ©
ibi dion
Ġboy olali
kul osis
ĠPale arktik
ĠGog uryeo
ĠPant her
Ġhtt p
osy bra
F ar
S ama
W ali
Ä Ľ
Å ı
Ġb odoh
Ġt olak
ol if
Ġber buah
Ġin vers
ek ad
ĠK andungan
ia des
ĠI ma
Ġg emar
ĠC ine
Ġla uk
Ġn il
ĠL amp
ĠL ist
ĠR ein
elah ian
atan abe
ip uti
Ġbi om
ĠO d
Ġsela t
Ġmemb uru
Ġberk ons
of ilik
ej i
Ġpeny iksaan
Ġkomp ak
Ã© p
ron tasi
udi us
Ġmemba yangkan
Ġmak assar
yll isia
Ġti up
oll ow
Ġsing gah
ĠBo iss
Mic rostylum
ĠDep uti
ĠDis amping
ĠSc or
Ph ronia
Î¿ Ïħ
ĠBas uki
Ð° Ð½
Ġberda un
á» ĩ
ĠCur ah
KB P
ĠMaur ice
ĠAdministr ation
Pur w
ĠPros opocera
ĠFinan cial
Ġkesus astraan
ĠKirgiz stan
awir awan
B D
D asar
H ex
O pen
c ata
p ter
p ahaman
q ah
t v
w alan
Ð ±
Ġ ambigu
Ġs kuadron
Ġp ekarangan
Ġdi filmkan
ĠS P
ĠS TI
is eri
Ġin tan
Ġter organisir
ĠP engan
ĠK endal
Ġh eran
ĠT anas
Ġmer angkap
Ġmeng evaluasi
Ġr isalah
ĠL ala
id ato
ant asan
lu c
Ġsek etika
ĠPer ingkat
ĠAnim asi
Ġmenc ulik
ĠCh iang
Ġpeny utradaraan
Ġbert angkai
ĠMar co
ĠIs abel
Ġkomp onis
An is
ho gunan
Ġkap ak
ht ra
ez o
ĠEl li
zi i
sk aya
ĠStr and
Ġsim alungun
Ġion isasi
ĠKur t
ĠWar ren
ĠCal vin
mit es
ĠCamp uran
ĠDay s
ĠHas yim
orf isme
Ġbij inya
Ġkedudukan nya
ĠPam eran
Ġemp edu
ĠKr eta
chth y
Ġdet ektif
Neo empheria
Ġsentu h
Ġkenc ang
Ġsimpan se
H ay
H ampir
L em
L amp
P us
R af
T F
T itan
l eri
l omer
s w
Ġb row
Ġt ekan
Ġt emukan
Ġt rich
on ing
es on
Ġber ibadah
ĠP seu
ĠP eserta
Ġper kantoran
ĠM arian
Ġl is
ĠR ider
op la
ĠH ib
ĠH omer
ber ites
ec o
Ġw is
angk aan
ĠV isual
Ġan tu
Ġberk ode
of or
oc ol
Ġkel emb
Ġdunia wi
Ġku ta
den tifikasi
Ġ10 7
Al paida
truktur isasi
ĠGen erasi
ono eda
co unt
Ġlem ari
ĠInd ependent
Mar s
Ġsim pat
umb uk
Ġmengin vasi
antas y
ĠBan ks
ĠPot ter
Ġpersa udaraan
imbang i
Lap oran
Amp h
Ġtung ku
åŃ Ĳ
A i
C M
H all
L uas
S atur
U jung
r ar
u ensis
z ep
in ti
Ġp ian
Ġt eka
es hi
il lah
is se
di yah
ĠP eta
ĠP ont
Ġper aga
ĠB orn
ir uan
ĠT amp
Ġl ute
ĠC onstruc
Ġla buhanbatu
ĠR un
ĠR ash
ĠR oth
ĠR RT
op at
ĠIn ti
ĠH isp
os sa
ip pus
Ġker anjang
ĠO cc
ĠY ok
Ġdis eb
Ġdis embah
Ġmenc ampur
man s
ĠPro gr
bad atan
Ġro ma
ĠSeb astian
As s
ĠInd ramayu
ĠEur opa
Ġta bu
Ġmus yawarah
ref ek
ĠEd die
Ġbus uk
ĠSum mer
Ġterba wa
Ġpeda l
Ġmag etan
ĠMong ondow
entral isasi
ĠKir k
Ġval id
Hak im
Ġmengur usi
Pop ulasi
ĠGab ungan
cast le
cla dius
ĠLok omotif
ĠKeys erling
Ġmesi u
M ekar
M onochamus
n m
n ut
n it
n anya
Ġp etisi
Ġk ut
Ġb ook
on do
es tan
es ha
ĠS aka
Ġber ga
ĠP ia
ĠD ing
ĠT O
ter us
Ġr eduk
ĠH onduras
ab elas
ma an
ĠW ork
ĠY ing
li b
Ġmel upakan
tor e
Ġat raksi
ĠX en
uri e
ĠKat e
ĠPers amaan
Ġkarakter nya
ĠMon ako
ĠTok ugawa
Ġraya p
Ġlengkap nya
Ġekstr im
Ġdipl omasi
Ġdipert andingkan
ĠJer ry
utt ata
uge ot
ĠPurw okerto
tav ianus
Ġmand at
ĠSAR S
ĠFeder ation
ĠKast ilia
laphy ra
C li
M ajalah
S id
T ang
n nya
v ent
Ġm c
Ġdi war
ĠM uz
ĠB elum
ĠB Ã©
ĠB uru
im eria
Ġ1 11
Ġf is
Ġn am
Ġpen unjukan
ĠJ uri
ĠR uk
ĠR ana
ĠR uth
ong e
angg aran
ĠY or
ani e
ĠCh ile
Ġdir endam
ĠAg ustinus
ow ell
ĠPr ima
ĠAs uransi
Ġ10 6
qu ist
ĠSt orm
rip es
Ġpenc ahayaan
Ġsk rip
Pro fil
Ġins ek
her o
rak ia
ĠGr en
ĠYo uth
ĠEd gar
ision er
ĠSum edang
imi yah
Ġkub us
Ġlemp engan
Ġmelingk upi
Kan ada
Ġsukarela wan
ĠGalil eo
Ġbeda gai
ĠShÅį nen
Ġpresi si
Ġsingk ong
ĠBach chan
ĠNip pon
Ġkript ografi
ĠTanas evitch
N G
T otal
h uni
k ayu
l angga
w iki
Ġd ollar
en zim
Ġt emu
Ġt amat
ĠP angk
ĠM BC
Ġmeng integrasikan
ĠC ong
Ġla teral
ĠL ihat
ĠH ash
Ġpem utar
ub en
Ġpeng uat
isi ologi
Ġdik etuai
ran n
Ġas per
Ġdip uja
gal anya
ka vasi
Ġpela p
ĠPeng awas
uli akan
Ġkeh utanan
Ġkal ung
Ġbis eksual
Ġrek tor
Ber awal
ĠMin nesota
Ġindi e
Äģ r
ĠYo yak
Ġken angan
ars o
Ġlebar nya
Ġsy ariat
ĠRobert s
Ġperak itan
istri kan
ĠKot amadya
eum icrotipula
Ġfemin in
ĠHelen istik
Pari wisata
Ġjama ah
A er
J ung
K L
m arga
p raktik
u wa
Ġs yn
Ġp eka
Ġdi usung
do uin
yang i
Ġke le
Ġin kl
ut sch
Ġj avan
ti ban
Ġh amb
ir in
ter y
ĠL angsa
wa wancara
ĠH ob
ĠG M
ĠG alaksi
ip ar
Ġmeny uarakan
ĠAl m
Ġkem erdeka
ho e
av ia
ron o
lt on
men ya
10 6
ĠPers ebaya
Ġdij atuhi
ĠMah at
Ġmon opoli
ĠLi on
Ġdif okuskan
Ġingin kan
ĠEd u
ĠEk aristi
Ġpembentukan nya
ĠNi igata
ĠKel ima
Kal ender
Ġol impiade
Seri e
ĠTerl epas
Ġmad rasah
ĠPun jab
roph ora
Ġmuk jizat
Ġmempro tes
Ġflor es
Ġpenger ingan
ĠAyy ubi
3 50
B ois
H ans
T L
c ala
j iwa
da ck
um un
ta wai
ĠP se
ĠB io
ĠB WF
im in
ĠI ris
ĠT rop
ĠT abel
Ġmeng ap
ri ver
ri que
ĠC ameron
Ġpen dak
ĠR endah
Ġpeng elompokan
ĠAn j
ĠO il
ea ven
Ġkep utus
ĠAm p
ole i
ind y
Per ilaku
ĠZ am
Ġterk umpul
ry th
urn ikan
Ġte tua
ĠQ uran
ĠNasional is
ĠArab ia
ĠIb n
Ġberg el
ĠFilip us
ĠRes ort
irm ingham
ĠHak ka
ĠItu lah
ĠCat herine
musi k
Myc ale
aron ne
ĠXin jiang
ĠStef an
Ġjas mani
ĠMug hal
C our
E ut
Z yg
c ine
k ei
p ine
er inya
ar ua
Ġm aria
Ġb rah
Ġse cepat
on at
or ama
Ġmen usuk
ap s
ĠJ endral
ĠR eli
ĠIn vestasi
usi on
eri ella
Ġv entilasi
Ġas s
ĠV aj
Ġap arat
Ġar m
Per aturan
est on
yat t
Ġtak dir
Ch ang
olog inya
odi ak
Ġrendah nya
Ġkek ej
ĠSi x
Ġtr unc
Ġkeper gian
cus uar
esan kan
Ġakses oris
CA CAF
lig h
Ġbon us
ĠFil safat
itro Ã«n
Ġsubstansi al
Ġspekt roskopi
H E
T hi
l umba
m oph
m oni
Ġk idung
da du
em or
do ba
ĠS awah
ik matan
ta an
el ess
ek as
Ġh alamannya
et al
Ġl aris
om es
ter inya
Ġpen didik
op en
op ul
ec tro
ĠAn om
ĠW ing
Ġ5 000
eja uh
Ġdih idupkan
ĠPr amb
Ġasal kan
ĠMer k
unga an
ĠKep ausan
ĠMa donna
Ġac ap
luk isan
illi e
ĠKeb angkitan
ĠAnd rea
ĠTV RI
ĠYo on
ĠPar th
Ġpu ing
Pa chy
Ġtet rah
Ġwakil nya
ĠTor ino
Ġmac an
ĠPe arl
Ġaustr alia
ĠStrat egis
ĠKans as
Ġnga wi
Ġtamp an
Ġsian ida
ĠBundes liga
B U
C ro
S ula
k han
m ine
ĠP y
ĠP ip
ĠP ena
Ġh u
ĠD S
ĠT eg
Ġmer uncing
om ing
ĠC R
Ġc uti
Ġc ilik
ab isan
ub ia
Ġdapat kan
Ġpeng amanan
ĠE is
ĠO da
Ġas pirasi
gu gus
ard us
Ġ18 41
ĠMar yland
ump h
ĠPro k
Ġkons ultasi
Ġpel arangan
Ġ10 4
Ġde ath
Ġtanah nya
Ch Ã¢t
Ġmenja uhi
Ġnon aktif
St andar
rag men
Ġsar apan
ĠKol eksi
Sp in
ĠFor est
Ġmeman ipulasi
los s
Ġtaj uk
Ġng engat
ĠPari aman
Ġlim it
ĠBukit tinggi
ĠServ ices
ĠChampionship s
Ġpetern ak
Ġseper angkat
Ġmenyus ut
ici al
ĠZen obia
Ġsala d
ĠMaul ana
Ġberep roduksi
olow ska
Aron disemen
A udi
D ai
N upserha
S epak
W ill
b ok
b ei
j ok
j mpl
m ers
t etapi
x it
z za
Ġd esktop
Ġm eg
Ġs ong
Ġp alem
ĠS wa
ĠS wan
Ġber argumen
uk ad
ĠK embali
ĠB lan
et her
ĠT I
ĠT etap
ĠT oko
Ġmer ger
Ġl uhur
Ġf ag
ri ta
ĠC agar
Ġn ok
ĠN ish
ĠL yc
per si
ĠG riff
Ġpem alang
ed el
ed ron
ĠAr nold
ĠPer intah
og ostylum
og mites
orm an
Ġdiper senjatai
if lora
if rons
ĠSep eda
Ġdiba cakan
ĠAda lah
ital isasi
Ġbertu lang
Ġkontr aktor
Ġpin yin
Ġer yth
Ġperse orangan
ĠSuk arno
ĠMag ister
ĠTu gu
Ġseber at
ĠMedi cal
dar ahan
Rh ab
Ġberkel ana
Ġkaf ir
Ġgl ut
Ġsekeliling nya
Ġterper angkap
ĠIw ate
Ġdiur aikan
ĠSpir it
Ġketidakm ampuan
leh em
B ell
H L
L angkah
m eri
m inan
Ë Ī
Ġm istis
eng gan
ari on
is uke
ĠP iet
ĠM I
ĠD R
Ġl iriknya
ela ide
ĠN im
ĠN ash
ĠJ ah
ĠL ia
op il
ali ta
ch isa
Ġdik omp
ran ta
Ġmel emahkan
ĠV og
ig era
Ġpr emium
Ġman uver
Ġman akala
ograf inya
Ġtekn isi
endah kan
Ġins ulin
Ġangk ut
mer us
ual isme
ĠGr im
ĠDe ep
Ġstr ing
ĠAnd rÃ©
ĠMet al
ano i
ĠNe olophonotus
evel t
Ġsini lah
Ġmac ul
cu it
Ġgul ung
Ġos te
Me unasah
Ġpenemu annya
liser ida
ĠSlam et
ĠMask apai
Ġteleg raf
ĠGregor ian
Ġdiwar nai
D ec
F am
H P
P osisi
T rag
T rog
p ori
Ġm uc
la yang
in ositas
Ġdi ukir
Ġse i
il s
ti ck
ĠM M
im en
ĠD imana
ĠC anc
Ġla ev
Ġba wa
ĠL ike
Ġor t
ber dasarkan
ec uti
ub s
ed ulian
Ġkar tanegara
ĠO P
don i
ac etan
Ġdis un
re al
ĠAm bro
Ġsel aras
oc or
Ġlu wu
Ġperk emahan
ly ph
Ch in
ĠPem eran
bon at
Ar g
ĠLi beria
Ġberba yar
Ġelektron ika
ĠSu e
Ġinter s
ĠDan ny
sen diri
Ġpengg embala
Ġdah syat
ĠEm ma
okrat es
Ġkepem impinannya
ĠStudi es
ĠPela ksana
Ġmi x
ĠCol lins
Ġmala ysia
Sm ith
Ġaudi t
omet rik
Ġit em
Ġtarik h
Call yspongia
Ġprok lamasi
redit kan
sup er
Ġmengimp lementasikan
wakil annya
eron imus
Ġkarboksi lat
Sumat ra
B oj
G aronne
J uga
S ony
f ic
k uda
v ic
Ġd kk
er r
on ensis
il it
el aran
ĠK BS
ĠK omoro
ĠJ ombang
ant ika
ber ra
ay un
ĠF iksi
usi ran
Ġker untuhan
Ġker aguan
oh o
Ġan onim
ensi us
ĠZ he
Ġmengan tar
ampak nya
Or gan
Ġmobil nya
ĠCar ey
Ġsik lon
dam ai
Seba gaimana
tabil itas
Ġpsik olog
ĠPela tihan
ĠUr ban
ym osia
197 7
Pas angan
ĠMuk erji
ĠDah ulu
ongs ong
Fr ont
ĠIndi ana
cons in
Ġoch re
enni um
Ġboc ah
cean apia
Ġdieksp resikan
Ġkeput ihan
Ġtertan am
A le
E X
H ot
L aw
P ho
e ia
r d
y ch
Î Ń
Ġs ad
Ġp av
Ġin tu
ur r
el on
[...]
